3F
37
3E
0D
02
0D
04
09
12
01
0E
02
0C
12
33
3C
08
30
0F
32
11
38
08
33
35
02
10
2E
39
34
04
0C
15
0E
0C
12
14
3E
3D
0E
36
3B
34
10
14
09
3B
09
38
0D
0C
39
0C
02
3A
00
35
34
07
03
00
07
3E
35
31
16
33
31
0A
05
0A
31
29
3B
2E
10
32
38
38
37
0D
39
09
3A
38
0C
3D
33
3B
35
2C
07
08
17
17
07
0B
04
03
0A
3D
05
17
32
02
16
36
09
28
02
07
2D
30
35
08
3C
2E
2F
32
34
0D
31
3E
3F
2E
3A
3C
33
0E
0E
09
03
10
10
09
12
11
32
10
00
33
0E
32
09
35
11
3B
35
33
09
05
3D
07
2B
02
3F
3F
37
10
38
05
0E
01
15
3A
2F
10
3F
32
2A
3F
39
0B
06
09
39
36
16
30
0A
0D
30
01
00
31
14
0A
0D
36
16
3B
11
39
3C
32
2C
3D
03
0B
01
37
2B
38
39
05
06
36
02
0E
06
01
33
0B
37
34
03
2F
25
09
33
35
15
0A
08
03
36
02
0A
2C
2D
3E
32
2C
07
0A
02
37
25
39
0D
35
07
0E
37
0A
17
09
35
36
3D
0A
32
11
37
00
05
38
3A
3F
13
34
0D
30
07
11
11
3B
05
3D
00
00
3A
2C
36
08
34
39
13
03
15
31
04
3D
3C
36
05
01
09
34
10
39
38
2A
36
3C
0A
3A
30
32
37
39
35
09
3B
2F
08
38
3D
0C
2E
00
0A
02
36
34
3C
14
2F
31
15
09
0A
03
0B
16
3C
33
0F
33
13
37
34
0C
02
2D
30
05
0E
09
02
3C
3A
35
01
09
16
0E
0C
2B
07
0D
37
3D
3D
2F
10
11
2F
10
36
34
0C
27
0D
39
36
00
0D
08
0A
0A
12
2B
05
15
32
34
05
3D
30
09
39
06
3A
36
06
0E
39
0D
04
33
3E
3A
30
0E
0B
3D
06
04
10
30
0D
32
09
0E
37
3B
31
2F
08
01
31
14
2D
2B
01
0B
32
03
39
04
05
0D
0F
07
09
02
3A
06
0C
2C
09
04
11
31
2D
02
3B
38
00
01
3E
39
38
05
05
07
02
05
3D
35
0E
11
3C
00
10
3C
13
2D
32
2E
2C
34
09
00
3C
02
01
3A
10
3E
02
04
3C
01
32
09
35
01
01
10
33
11
37
2F
15
34
3B
08
3C
3A
37
13
3E
2F
0F
32
13
30
32
10
16
10
35
08
33
06
3A
36
12
11
2E
37
10
0B
3C
37
37
36
3A
0A
34
3D
10
36
34
16
30
11
02
3C
0C
30
09
33
03
31
00
02
3E
36
16
19
36
14
3D
3D
0C
37
06
3A
2F
03
11
07
0A
07
2B
3A
10
0A
37
3D
3B
0D
2F
33
31
0A
15
09
0E
09
04
35
09
35
39
35
0F
3B
35
08
13
06
02
2E
39
27
36
18
0C
31
3F
24
2F
0A
10
02
0D
37
2E
32
2D
0D
36
38
0A
0A
37
2E
30
01
2B
13
07
2F
0E
0E
30
36
38
3D
2F
33
10
31
17
13
00
08
15
02
06
02
3F
3B
05
00
0F
08
11
2F
3E
0C
36
34
3A
01
3F
2F
06
05
39
12
03
07
36
08
0B
36
09
35
0F
09
35
31
38
0D
07
3D
38
3E
02
3C
39
32
07
38
0D
06
13
06
08
29
3A
03
2F
05
3D
0C
0D
37
3D
0F
30
2B
13
0D
2D
2B
31
35
29
3C
01
0D
15
34
05
37
30
15
03
03
11
00
0E
3B
16
04
02
0C
05
3F
0C
00
03
34
38
14
0C
09
38
3B
15
0F
04
01
0D
0D
0D
3F
28
3C
2B
03
0C
3A
0F
34
2E
09
07
27
2F
07
2B
02
0A
31
06
32
3D
30
32
32
04
0C
31
3D
11
11
35
09
13
0F
02
11
29
33
32
3C
3A
31
0F
3F
3B
06
35
06
0B
0E
10
2E
11
3E
34
35
0E
3A
0B
37
08
3C
27
13
2B
00
3B
3D
33
08
13
06
3F
0B
09
0C
0F
0D
36
02
00
06
09
05
0C
0C
30
2D
09
11
0B
11
08
03
09
2D
11
3B
3D
12
01
07
2F
05
0E
35
0C
08
36
0E
05
0D
0A
30
35
0C
3B
07
17
0A
00
35
0B
04
30
16
36
38
02
3E
39
06
12
0E
38
04
32
30
03
13
0B
3B
37
13
08
3D
2E
2D
34
00
00
2C
2E
05
32
0D
03
39
00
0A
01
03
15
0D
30
0E
0B
0A
33
10
37
3B
3C
05
0A
2C
3B
2B
3B
35
1B
2A
2B
35
17
3B
3D
04
37
04
00
0C
11
37
37
15
0F
3E
30
32
14
06
3E
04
17
31
25
24
08
32
10
04
2D
35
0F
00
37
3D
3E
35
2C
3D
3A
37
3A
0F
08
02
2F
37
37
3A
02
3B
05
09
3E
08
01
30
3C
2B
01
0B
08
15
3A
17
0F
3F
04
08
3A
3B
10
3F
0F
0F
34
07
07
0B
0E
2E
1D
07
34
16
10
0A
3F
0F
0C
3A
12
3C
36
06
0D
0D
35
3C
12
10
3B
08
02
3D
32
0C
3A
07
32
0F
0A
30
0F
3A
31
12
16
0C
3F
14
0B
10
35
07
32
0A
0F
00
3C
0E
0B
38
2D
2A
32
08
06
09
34
15
03
35
02
2E
11
10
38
36
2D
11
36
08
3F
08
34
05
39
3F
2F
0F
31
0F
10
08
04
39
01
11
03
2F
09
06
37
38
0E
10
05
2C
36
3F
31
10
06
12
07
0F
3A
07
00
01
2C
35
3D
06
3C
14
30
05
37
33
0D
0E
17
14
3B
38
06
33
3A
38
35
04
3D
00
3C
06
2A
32
2C
2E
05
2F
3D
13
33
09
39
37
2F
09
10
00
3B
06
03
3B
09
39
30
08
37
0D
36
0B
31
30
28
01
33
2C
39
01
09
34
3F
0B
39
39
32
2F
15
3C
09
35
0C
13
0A
3F
34
33
2E
08
01
07
12
2A
0B
3C
3B
3B
31
14
06
09
05
3A
3B
2E
01
33
14
02
09
0F
35
08
3E
39
03
03
32
12
38
06
34
0F
03
0F
30
05
06
3A
11
2C
39
17
0B
0B
2C
02
3A
0E
03
0B
15
05
09
04
3B
11
0C
11
2F
3D
13
06
0A
01
0A
39
35
05
3D
2F
15
39
38
36
11
3D
06
39
3C
2C
38
37
29
0B
29
31
2C
39
01
06
0B
2A
02
37
2F
0C
05
3E
00
30
06
39
31
2F
3C
01
03
2C
2F
00
03
3B
0C
12
36
07
0A
12
32
37
04
05
31
02
3D
17
2B
2F
02
0A
05
02
07
0E
37
39
10
0B
35
03
12
12
0A
35
2F
09
3E
36
13
36
33
0C
3E
30
3E
0B
37
01
10
08
3E
37
0D
12
06
39
2F
09
0D
37
13
3B
04
11
13
0B
0E
0F
10
3D
12
01
09
38
3C
38
11
2C
04
3B
30
18
09
07
03
01
2A
2D
0F
0B
36
00
2E
03
12
36
15
11
36
34
06
3D
03
32
03
01
2E
02
0F
3C
37
0C
02
0E
3E
16
30
0B
10
06
38
10
01
3F
2F
0C
2F
31
0B
34
10
2E
36
0B
36
3F
3A
09
0E
2C
2E
19
0C
0D
2E
13
31
04
09
0D
0D
38
0D
3B
10
1A
07
35
0F
13
3A
0E
37
3D
0B
3A
05
0B
02
05
10
15
00
04
33
0A
3C
3D
3E
01
36
32
05
00
33
0D
3B
34
01
2E
32
3B
30
3C
3D
2B
00
2E
00
3B
3E
09
29
3E
09
00
14
13
3B
06
3D
3E
0B
39
0E
05
10
0F
04
33
12
06
0C
2D
2E
05
37
10
0C
3E
0F
15
13
32
08
36
3A
0B
34
3D
0F
31
30
0A
0E
01
36
3E
04
0F
3E
12
0F
3B
39
07
2E
02
30
39
07
05
33
13
07
10
3E
07
3D
34
3C
05
04
3B
33
37
14
09
3E
00
33
39
09
07
12
03
09
14
3F
39
38
10
09
0E
38
07
0C
0D
11
11
38
04
30
3A
09
36
06
2B
04
31
0F
3F
05
1A
05
3E
01
3B
0F
0F
2E
3C
36
3A
32
0C
02
35
30
34
0C
06
0C
04
2C
0A
08
38
0C
31
30
33
11
01
02
39
32
30
1B
38
2E
02
2A
0F
05
0A
33
33
09
2F
2B
08
0D
3A
14
00
35
2C
15
3F
3A
3A
33
2E
31
01
0E
3B
0A
31
3B
2A
3B
05
38
36
02
3C
34
0B
3F
01
3A
09
08
05
3C
34
38
30
11
34
03
2B
01
2D
39
2B
34
3E
33
11
3B
3E
11
0F
3D
0C
0A
0A
15
14
3A
02
3C
2F
31
31
09
2D
13
11
37
30
0D
3E
30
3C
04
32
3C
31
0C
0D
3A
2D
03
0D
05
19
02
3D
3C
0E
11
10
03
33
07
0A
31
25
29
3C
0F
0B
0C
39
2D
0B
35
0B
0F
00
33
17
3A
32
35
06
2A
34
34
3B
14
04
3E
37
3D
14
14
13
04
3A
07
31
0C
35
39
39
0C
01
24
3A
04
12
07
30
30
06
07
3E
2C
3C
37
0D
39
09
08
32
3B
04
02
00
0A
10
2F
02
02
33
12
39
05
30
01
07
36
3C
12
33
11
08
31
26
05
31
3F
33
01
0D
2B
3F
00
0C
2E
36
3A
10
0F
36
10
0F
29
07
2F
09
3F
3F
10
02
3C
07
37
06
0F
16
0D
2B
0A
29
3B
0B
3C
3A
3E
05
38
35
37
0B
39
3B
3A
3B
02
2D
08
09
09
3C
3E
05
33
37
23
33
07
38
0C
08
09
2B
2C
3B
06
05
3B
0C
0B
02
0C
0B
31
38
0A
07
39
05
0B
07
0C
2E
29
0C
08
0D
15
34
12
3E
3C
2D
2E
03
2E
2E
0A
2C
11
33
3F
2D
3C
02
31
04
0B
33
32
37
36
09
0E
12
04
01
0E
19
13
34
39
37
08
16
0B
34
13
2B
30
36
3D
35
32
2D
0D
2D
14
0B
2C
3B
3C
0C
2C
3C
09
35
01
38
3E
09
0C
38
2E
0A
0B
38
01
3F
0D
3A
13
0B
31
39
35
3C
2F
03
00
3F
3D
2A
2D
08
04
07
36
08
10
35
2C
12
3C
36
0E
15
3B
2D
01
03
30
05
09
35
1A
10
09
2F
0E
01
3F
04
08
04
0E
29
31
35
09
07
0A
04
13
2F
32
09
3C
0C
11
15
33
2F
0A
37
39
08
3E
02
10
0C
37
0A
01
0B
06
2D
16
3C
18
0E
0A
03
36
08
32
3F
3A
06
03
2D
3A
3E
06
11
30
2D
08
36
0D
39
39
3A
02
11
29
2C
34
3E
3F
10
2A
32
2B
37
37
32
0A
03
38
0E
0E
0B
3F
08
3B
39
36
06
37
34
04
18
3A
3B
0C
3B
0D
17
07
37
3B
06
0E
3C
34
08
39
3A
03
02
09
3D
06
09
30
07
39
3F
12
10
16
03
19
07
06
3E
34
2E
38
0B
3C
06
3F
37
34
3F
0C
10
09
3D
11
30
38
28
37
36
00
10
3B
11
06
02
3F
05
03
38
32
33
3E
28
08
2D
01
3B
0C
02
3E
0E
18
38
3A
08
07
30
04
17
31
2F
38
36
19
3C
00
0C
0D
2B
2D
3B
2D
04
2C
3E
3D
00
3B
0C
11
00
36
0A
3D
3C
0D
0F
0F
0C
06
0A
34
2C
09
3C
32
01
01
31
00
30
3C
04
0B
08
37
30
12
0A
0A
0B
05
01
05
14
0A
0A
3E
05
09
35
3B
37
3B
0B
0B
35
37
0D
2E
3E
3A
38
3B
09
3C
3F
39
0D
0B
36
03
38
37
34
0E
0F
2F
2D
3A
37
2E
37
0F
02
19
09
35
31
3F
36
39
36
3B
0D
12
0E
37
3D
17
3C
02
02
09
34
0D
03
3A
34
3A
00
34
3B
0C
11
03
3F
3B
01
0F
2E
32
00
0B
06
31
2F
04
2E
11
0B
00
09
3B
3B
12
02
0E
38
34
06
08
1A
16
0C
10
06
3D
0F
3D
39
3C
38
13
2B
3C
0B
13
06
39
05
3E
2D
08
3F
38
02
37
32
03
34
0C
0E
07
3F
04
3B
10
10
2E
2C
36
3E
00
37
35
01
35
3E
00
2F
03
04
3A
02
0B
33
06
02
13
2F
08
09
33
28
3C
13
39
38
00
08
03
14
3C
03
10
3A
36
01
3C
3E
2B
3D
3E
37
09
16
04
14
04
3E
06
3A
3D
35
37
0F
3B
09
0C
37
36
2A
0D
35
3D
3C
3C
3D
0D
37
32
0E
3B
08
0C
39
08
3E
38
39
06
3C
34
12
0C
06
3F
00
0C
2A
02
35
00
0A
2C
3F
35
33
3C
33
2E
39
37
37
07
2E
03
36
0D
39
2D
3A
17
17
0A
38
09
14
2A
09
12
33
38
3E
3A
05
3A
3E
36
2F
0E
39
2B
0B
3D
0F
32
3F
33
33
05
38
37
36
30
04
0B
08
09
09
39
31
13
03
07
30
00
08
02
31
0E
3D
0E
0A
0A
07
33
30
02
3A
37
29
0A
00
30
3F
37
2F
36
38
0E
04
05
08
00
12
39
34
02
11
04
3C
3F
06
0D
12
08
36
39
02
2F
3C
0F
38
38
3C
08
04
3E
3D
3B
3C
09
05
0B
3F
0A
3E
3D
37
38
0E
05
37
0B
04
3F
04
0B
0F
38
3E
32
30
03
38
34
10
05
3B
3D
34
05
02
38
00
06
00
12
39
3D
3D
37
3A
00
06
31
35
07
2E
11
34
0A
30
05
09
3B
38
3F
2E
00
31
3F
06
3E
32
3D
01
06
11
0F
32
04
06
3E
07
37
00
34
0A
3B
0D
01
3D
2E
0B
3E
03
37
2B
06
3C
3B
3F
37
04
0C
0F
03
0E
32
09
2E
04
3B
10
07
16
3A
0E
39
10
31
05
39
36
07
30
38
06
14
16
3D
0B
33
3D
09
3F
3A
00
3F
06
04
3C
08
2F
0D
2D
00
2A
00
37
3B
3E
3E
03
3B
07
0D
26
39
07
3C
0E
0C
1A
0A
3D
03
08
35
3F
06
32
16
00
04
31
3C
04
05
3B
18
3A
0D
35
06
00
3D
04
05
07
08
31
3A
37
3B
37
2D
03
33
3E
3C
16
00
3F
35
3E
3B
2D
12
06
11
05
3F
0C
0B
2D
39
34
34
05
0E
37
37
3E
36
30
26
3A
33
05
33
3F
0D
3E
34
14
3A
3E
10
12
0D
31
3A
31
09
0E
17
0F
0E
31
0E
2B
0D
3D
05
2D
3E
0D
2E
03
39
14
3D
09
38
0C
0E
02
3C
3E
3A
3C
3F
3C
29
2F
31
1B
09
0B
3F
05
05
3C
07
39
30
3D
0D
39
09
0A
12
3A
2A
0E
38
30
3D
0B
0E
2C
0E
09
3C
37
2D
35
14
3C
07
06
34
07
0B
01
3D
2A
3F
3B
39
3C
15
33
07
01
34
0B
35
3B
36
10
10
0C
01
0E
38
02
05
13
30
11
37
02
0A
0C
3A
3E
00
34
00
01
33
33
33
3D
38
3C
09
32
3B
00
33
07
06
2B
14
00
3A
14
3F
3A
2D
05
03
36
3E
13
3B
04
3D
15
02
3E
38
0F
3C
0D
3E
10
01
10
02
03
09
3F
0C
2F
02
2A
3A
0A
33
38
2D
08
32
32
2E
04
05
39
08
01
05
07
05
3B
0D
3B
0B
3A
05
09
10
10
01
3F
3D
08
07
35
15
06
37
0E
3A
3C
00
07
00
32
04
2F
0A
06
04
08
06
3F
36
0A
06
2D
38
04
34
13
39
2F
0E
03
08
37
39
0D
06
37
09
05
2B
00
31
0C
36
3F
33
07
03
36
32
38
04
3E
3F
04
3E
07
31
39
05
35
03
35
10
39
12
32
39
0F
3F
33
13
09
0D
06
32
06
3F
12
39
3B
31
00
00
38
3D
08
02
36
35
3A
04
3C
06
3C
0D
32
04
05
04
0D
0B
0B
07
36
39
06
3B
32
33
03
02
05
09
2F
00
3F
09
12
09
3A
07
07
0B
3F
07
35
38
02
37
2C
3D
05
06
0C
39
32
38
04
2B
0C
11
04
12
30
0B
37
39
35
14
0C
34
19
3B
3C
33
2D
38
31
2A
3D
16
0E
09
33
3F
0C
0F
3E
14
3B
05
33
10
03
3A
37
3E
09
03
0D
3B
35
38
01
3B
09
09
12
3F
03
00
02
3D
13
03
04
07
31
3B
02
03
3A
0D
35
09
00
39
3D
06
35
3B
08
0F
37
12
31
38
39
2B
38
00
0F
01
00
3D
2F
09
3B
0A
29
02
3C
09
33
33
3A
14
13
12
04
09
02
05
07
01
33
02
07
31
0C
03
31
0C
10
0D
2D
08
3E
3B
09
38
10
02
2F
13
00
30
3A
0C
3C
00
0B
3F
2C
14
0E
0E
05
02
35
3A
05
0D
0C
0C
04
07
09
36
0B
03
38
14
02
3F
12
00
35
05
01
34
2B
0C
29
12
2B
2A
3B
04
0E
36
13
08
12
1A
19
32
3E
0D
3D
0A
10
0E
05
07
0E
02
09
3A
0D
04
01
18
04
34
35
13
0A
2E
3B
0D
39
33
3A
3E
0B
08
01
3F
36
37
0C
13
38
07
34
00
39
01
31
00
16
37
0B
0C
09
09
36
3E
3C
0C
0F
03
04
3B
03
34
15
04
08
38
0A
00
3C
08
38
2F
0A
38
0A
09
3E
37
05
08
13
04
2F
0D
38
03
3C
38
0C
04
2F
39
37
31
37
2E
31
30
3D
37
01
05
36
3A
31
06
10
08
35
39
39
30
08
01
04
0A
33
3F
3F
2B
01
3F
2B
3E
13
09
35
2F
10
35
33
3D
3C
14
3B
35
3D
3C
05
08
00
37
02
3F
3C
02
3B
3C
0A
05
2F
3E
31
38
0D
03
0C
32
03
0C
07
09
05
37
36
3C
2A
39
3A
08
0E
3F
2C
09
3F
02
00
3D
35
07
10
2F
32
00
02
3A
03
04
0E
3A
07
0D
0A
38
10
3E
3B
10
0E
06
37
3C
04
39
10
3D
0D
35
3B
37
07
3B
04
33
12
36
04
39
2D
00
32
07
0C
3B
3E
00
11
30
3C
3A
2F
0A
02
37
06
09
36
36
01
3B
3E
08
05
37
36
2F
38
0D
08
39
2C
08
00
02
0B
0D
33
09
11
06
08
08
3C
0E
00
0A
08
24
01
39
0A
01
11
0C
3C
0B
11
3D
0E
33
3A
3B
0A
02
38
32
11
34
04
3A
3A
30
3B
0B
2E
05
14
0C
34
2C
37
03
38
0C
3C
10
06
06
0B
30
3A
39
3C
33
33
03
09
35
30
0C
3A
2C
36
2D
11
38
3D
01
02
3A
38
0C
01
37
3B
0E
3A
04
3C
37
05
05
04
0D
38
02
30
05
30
2F
11
0C
0C
3E
0A
3B
3B
03
0C
08
31
39
39
36
3D
36
3E
07
09
3B
33
33
10
3B
2A
36
06
3A
36
3E
01
2F
36
34
30
0A
02
3D
31
0A
0D
02
3F
3D
00
3B
3C
3F
35
37
0F
01
09
27
15
0B
0A
28
3F
2C
00
13
3B
13
07
2C
39
0A
0C
31
39
35
31
35
0C
37
01
34
0A
39
3A
2E
36
36
01
07
34
31
34
33
37
3A
0F
00
36
2B
35
18
3D
0C
06
2E
0D
0D
2F
3F
2E
0F
3C
0A
2F
09
05
38
36
25
3B
3D
0D
03
10
02
3F
29
3F
0E
3A
02
32
03
35
10
2F
02
33
32
08
38
01
07
0F
36
1A
3D
0A
0D
03
0F
10
2B
3C
3A
08
09
3A
0A
37
1A
0E
04
17
13
06
00
39
0D
0A
0E
03
09
3F
3A
04
37
06
13
32
0B
17
37
11
31
38
11
10
10
3C
11
38
3C
04
0A
3A
05
36
3B
3B
16
05
36
0E
33
34
0D
34
36
33
0A
3D
0D
32
08
0B
00
11
05
03
0D
3B
36
3A
3E
31
03
10
3B
06
12
3E
0D
0F
2D
02
3A
38
2F
0E
3B
01
10
0D
02
3B
11
32
35
0F
03
3B
02
04
01
37
07
02
08
36
3D
09
2F
2C
15
02
37
03
3D
3D
08
00
3F
3C
34
0A
39
3A
03
08
32
08
06
16
3B
3D
38
0B
07
33
3A
01
01
09
0C
38
30
3B
28
3E
39
3A
3E
17
35
0D
35
35
0C
38
39
10
2E
3F
37
2D
0B
3F
00
3D
13
00
32
3C
3F
03
34
30
36
08
01
3C
0A
36
04
32
3F
36
02
12
06
30
01
35
0D
05
05
0E
08
3E
3C
36
3C
3B
35
3F
12
30
33
34
00
08
0F
39
32
0D
04
3D
07
39
02
30
30
04
34
31
3F
36
0A
0C
08
3E
2B
11
37
3D
33
02
36
39
35
07
3F
04
2B
34
3D
37
2F
04
31
36
37
2A
33
37
35
05
02
32
0F
05
37
37
02
0C
05
39
0F
18
2E
03
08
3C
3A
07
3A
2F
04
3A
07
01
0F
00
3B
12
3C
3B
3F
17
38
35
08
3A
3B
06
30
0C
34
3C
08
31
0F
08
33
02
00
2E
39
39
3B
3F
03
08
10
2D
01
0E
3C
0C
10
3E
32
02
3B
2F
30
3D
28
3E
0C
31
31
04
36
09
08
39
3E
02
02
29
02
09
08
38
10
0D
11
09
30
2F
0F
32
0D
06
0C
0C
38
39
38
38
3A
01
3F
0C
0F
30
3A
05
01
04
30
0C
10
16
06
3E
15
08
38
0E
15
37
06
16
15
11
38
12
33
0D
0D
03
0A
35
00
3B
3E
00
12
12
37
3C
38
3C
0B
37
35
37
0E
09
39
3A
32
2C
0F
3C
06
3E
06
04
01
13
39
0F
16
19
01
3A
09
3E
39
0C
3B
0A
12
0B
3B
3E
05
0C
04
0D
31
35
07
0B
14
30
01
0E
01
0A
04
06
03
07
11
3D
0E
3A
3A
01
39
03
01
35
00
0D
14
3A
32
10
3F
33
30
05
0C
02
31
37
0D
2F
0E
3D
33
3F
13
14
03
37
05
36
3C
39
2C
3A
10
03
30
38
3C
35
38
3A
3B
01
36
37
00
31
01
2E
11
36
0F
04
0A
34
3F
38
06
09
3B
3D
01
2F
3F
05
3D
3C
08
0F
14
05
3D
13
04
08
0F
3B
06
03
37
3D
3F
09
3D
08
04
10
0D
32
3D
09
00
3F
02
3D
04
3B
07
38
3A
0B
0F
3F
36
0D
3E
01
34
3B
36
05
30
36
3E
09
3A
38
35
0B
31
3F
30
0A
01
2D
31
0F
3D
3D
39
07
09
3C
12
02
31
09
02
08
02
06
32
08
02
0E
39
33
30
10
30
10
0F
07
08
07
3E
34
02
08
0A
3B
06
04
38
02
05
12
33
3D
3A
36
3A
0B
3A
39
04
0A
3C
3F
0C
07
04
38
05
01
02
07
05
2E
3B
01
3C
0B
2C
05
38
0A
3D
31
02
08
36
2F
34
31
28
04
39
32
30
36
32
0A
01
35
3F
38
10
35
01
00
03
0D
34
3B
38
02
3A
08
01
2F
2C
0E
34
05
0F
3D
08
11
07
35
3F
35
0B
3C
3E
01
0C
33
2F
08
35
12
39
03
36
03
3F
3D
01
19
00
0A
00
04
0B
06
0A
03
0B
0F
38
0F
33
0C
06
06
13
03
3A
01
06
39
0E
32
28
2A
02
04
37
38
37
33
3A
14
30
0F
12
32
3F
2F
2F
38
3E
2F
34
0B
0B
03
00
02
2F
2C
04
0B
3D
2C
37
3D
39
0B
30
16
39
06
3C
3B
04
10
33
0B
05
34
08
04
0E
0B
34
3F
36
30
36
0C
3E
36
33
09
0B
33
0D
39
3B
05
3C
2F
02
2D
3D
32
02
3A
32
03
10
0C
12
3D
08
02
18
38
04
06
2F
05
3C
3C
2E
0B
0D
0D
05
02
00
3E
33
13
04
34
31
31
36
2E
32
38
30
3B
3A
02
30
3F
3C
2E
2F
13
39
3C
15
38
32
3A
3B
38
00
02
0F
33
06
0E
07
29
05
0F
05
34
0D
38
2B
0F
19
36
12
12
30
01
0A
3D
07
2E
10
3F
3C
33
0C
2E
37
31
0A
3C
06
3B
06
07
37
00
35
0B
38
1C
00
3B
39
01
3F
18
38
3F
0F
3B
38
0A
03
02
34
12
01
2D
10
0C
09
0C
3A
37
2C
3C
35
37
02
04
04
0C
3F
05
36
3E
3A
38
09
0E
05
36
3F
02
3B
0B
3C
31
3C
02
2D
36
3E
3C
3F
2B
02
3F
0C
06
01
34
0B
15
37
03
2E
0B
09
0F
24
00
0C
2F
01
00
2E
38
05
05
3E
37
2B
01
31
33
2C
0C
02
2D
0E
01
32
13
3B
0B
09
31
08
3C
2D
0B
06
31
33
33
32
36
3D
07
33
08
3B
06
36
3C
00
39
06
07
0B
03
12
31
3D
00
2A
08
03
04
04
3D
01
31
2A
36
18
36
2C
0A
11
2F
07
03
07
32
06
11
31
39
3B
36
3F
00
31
07
0F
2F
2B
03
38
3C
04
3A
2E
00
08
3E
3D
36
34
39
3B
2B
03
3E
06
09
0C
3B
08
39
04
3C
3D
10
34
08
3A
3B
38
31
34
3B
3A
0A
12
00
3B
07
03
39
00
04
3C
3A
0A
3F
31
03
0D
39
3E
05
3F
3A
3A
11
10
13
30
0F
32
39
02
33
0A
3A
0B
04
0A
3D
04
02
35
39
00
2C
0A
31
35
08
08
0A
3E
00
3E
2E
02
08
2F
0C
39
01
35
0D
35
00
1A
38
0F
11
09
04
00
3C
3E
00
2F
1E
37
0B
3F
0D
29
3A
3E
3B
04
07
36
36
3C
16
34
3E
00
02
0E
06
3C
35
04
06
30
01
3B
11
06
0C
0C
2B
38
04
03
03
3D
38
0B
2C
07
32
0A
37
14
0B
02
0A
33
0B
01
3D
33
04
03
36
0B
01
2A
00
39
02
3E
06
3D
0C
2B
37
3B
3F
03
2A
31
03
00
30
14
06
3D
39
09
0E
10
3C
3A
07
14
09
05
00
02
09
34
2A
31
32
0E
0A
00
3A
07
01
2E
0E
25
04
38
07
34
16
2F
02
04
0E
07
3E
39
06
38
39
2E
02
0C
00
3D
06
3D
13
14
02
2E
03
0B
02
34
0D
03
07
39
08
2F
2E
30
3D
39
0D
3F
0B
06
3F
38
0E
0F
0D
32
35
01
3C
36
15
12
38
0C
0A
07
0E
3D
15
02
2F
06
31
01
0C
33
2A
33
13
12
2F
2F
0A
38
04
15
3C
34
0A
08
2E
05
14
3D
2F
3F
0B
38
30
32
09
13
11
32
3D
30
15
33
16
05
00
2E
03
3A
0E
15
32
35
3B
09
3E
0F
3E
06
0B
0A
07
04
01
06
0A
14
04
2D
3A
04
0E
11
35
04
31
38
38
31
3E
35
00
3E
00
34
3C
0A
0D
0B
08
2F
38
0E
0D
0E
14
2C
01
3E
38
39
32
14
34
36
01
31
3A
07
0B
13
3C
05
31
0C
12
17
02
03
08
3E
3B
13
0F
3A
08
0F
0E
0D
0C
06
2D
04
39
3C
2E
37
36
30
2D
36
2C
18
3D
0B
0F
30
0D
2C
35
07
04
32
02
2A
00
32
2A
0E
08
3A
33
37
09
3F
2D
2D
05
12
06
0F
0C
0E
0E
0D
34
07
13
3D
11
11
03
11
32
05
15
3A
2A
13
37
3A
07
3D
11
0B
2F
0F
3B
3E
08
12
3B
0D
10
16
37
3D
06
36
05
31
02
3C
02
30
0C
2B
2E
07
3B
0A
0B
08
34
0B
03
30

