3D
05
3C
3E
3B
3C
0A
03
08
37
3F
04
00
3E
3F
06
05
3F
3F
02
3E
3A
05
3B
04
3D
06
08
3F
00
3E
3A
39
3D
02
3B
03
01
3C
00
01
00
3E
05
04
02
09
09
03
02
03
06
39
3B
3E
3B
03
3E
3F
03
04
3C
02
3F
3A
3A
08
3B
3D
3E
3B
38
03
02
01
06
02
05
0A
3E
38
3E
3B
3E
3D
3B
3B
39
3F
06
01
3D
06
3C
00
03
3B
06
05
05
03
3D
02
3B
06
39
07
07
01
3D
07
3E
01
01
05
07
06
05
06
07
3D
3C
3C
02
04
05
01
08
3C
3E
02
3B
39
3C
04
00
01
08
3F
01
05
00
05
3B
01
00
00
37
3E
00
3F
3E
3D
07
00
01
3C
00
03
3E
3F
04
08
37
3A
3D
3F
04
00
3B
02
03
02
3D
38
00
39
02
01
03
00
3F
00
00
3C
3C
3F
00
00
03
04
3F
3E
3E
08
02
03
3F
3E
02
38
03
02
3E
07
07
02
3D
39
3B
02
3F
3C
04
00
02
04
3C
3E
3C
00
3E
39
00
05
3E
0A
05
00
02
3E
04
01
38
04
3F
3F
03
00
07
3B
38
03
3A
3D
3B
00
3C
3E
3A
01
38
04
36
3F
3F
3D
02
3B
39
3D
3A
3C
01
3C
3D
37
00
38
03
3A
3E
05
00
3A
07
35
03
3E
3E
3A
3D
02
04
07
03
06
07
05
04
3E
3D
39
04
03
02
04
37
03
3D
04
3B
3C
08
3E
02
08
00
3F
09
00
3E
3D
00
07
3A
08
05
06
04
03
39
3B
09
3B
02
3F
01
39
3A
07
01
37
00
3E
3E
3A
3F
0C
00
37
3D
05
08
3C
3A
3F
00
3A
3F
3B
37
05
00
04
00
32
06
07
05
3A
3B
05
37
03
05
3D
3C
06
3F
07
00
3E
03
04
3F
00
04
03
01
09
3F
03
38
04
3A
08
06
3B
05
06
06
00
0A
04
00
01
03
38
00
39
3F
03
07
07
05
00
07
04
3F
0B
03
04
02
04
3C
3D
37
3C
03
02
3F
3D
01
39
00
3D
3C
3E
37
3C
05
01
00
37
06
01
00
35
08
04
3E
01
3C
3B
00
01
04
00
3C
05
06
01
04
37
3E
3E
02
3B
03
02
04
04
08
3E
3D
00
02
3D
3B
3B
3E
36
04
00
00
3D
3B
3E
08
06
09
3E
3D
0B
3A
09
3F
03
39
04
0A
03
3F
3C
3F
06
0C
01
01
03
3C
05
3B
03
3E
3C
06
07
05
02
03
02
02
39
01
07
38
03
3D
01
01
3F
04
3B
04
3B
3C
3A
3B
3F
37
02
38
07
01
3E
01
3B
38
3A
01
3E
3D
04
02
3C
04
3C
02
3B
3A
01
06
00
05
39
3A
3C
06
00
03
03
3F
05
3E
02
02
3F
06
3E
03
08
03
02
02
3A
3B
3D
02
04
08
05
3B
01
03
01
05
07
3E
05
03
03
00
03
03
05
02
01
07
02
3A
3C
03
05
3B
37
01
01
00
00
01
3E
05
3E
3E
01
38
06
05
36
39
3A
38
3A
39
0D
00
3F
04
03
08
00
01
3B
3C
05
3F
35
04
08
00
00
3C
03
00
01
02
00
3C
03
0A
03
05
02
00
06
3A
02
3C
3C
36
3B
3E
38
3B
3E
3F
00
06
01
0A
03
38
04
01
37
01
39
3F
3A
03
3E
39
3E
3E
01
3F
03
04
3A
01
3E
08
01
06
02
00
04
03
03
04
03
35
3D
07
3E
07
04
02
3B
02
05
3D
3D
00
05
0A
3F
3C
3F
06
38
03
3D
3E
02
04
06
3A
3A
02
06
06
03
04
01
07
0A
3D
02
3D
04
3D
38
02
3C
00
05
39
03
02
3A
03
00
3A
39
09
3B
3C
3E
0A
07
39
07
01
02
3B
01
02
05
34
00
08
3F
05
3F
01
01
3F
00
3C
38
3B
08
05
3F
34
3A
3D
01
3F
0C
07
3C
05
03
00
38
3E
00
3B
39
00
06
03
3A
02
3A
07
07
3D
07
05
05
3C
05
36
37
00
02
3D
06
00
07
06
02
08
3C
01
34
00
04
3B
3F
03
00
3E
03
01
3F
39
00
0B
39
3F
04
05
02
04
01
02
3A
3C
3B
3F
3F
3F
02
00
01
00
3E
0B
03
3A
05
04
04
07
3B
00
00
39
05
39
03
3B
08
08
03
06
3A
05
3E
3A
01
3D
08
07
3D
3E
3B
3E
3E
04
01
05
00
3A
04
01
04
3C
03
3B
3E
04
3D
3D
00
3D
03
3C
06
3D
06
02
3C
3F
00
00
01
3F
01
36
02
04
3A
3D
3E
06
02
3D
3E
3E
3A
3A
04
3F
0B
01
3B
3F
39
08
3C
09
3C
3B
02
01
3A
3C
3A
3B
03
06
06
0A
04
01
06
03
04
03
04
07
0A
00
03
3B
07
3F
3E
3C
3D
3E
01
00
3F
06
04
3E
3D
04
09
3C
02
3C
07
06
3D
3B
02
00
06
3E
09
08
3F
3D
3D
3D
3D
38
05
37
3A
00
04
01
3D
3D
3B
06
04
3C
3C
3C
01
3B
01
3E
02
3C
06
38
3C
01
37
00
3D
05
02
01
3E
00
00
05
06
01
08
3B
00
05
05
05
00
3C
3F
04
3A
03
05
3A
3E
03
00
00
3A
09
3F
3B
3E
01
05
01
02
00
3F
01
3B
04
00
01
3F
3F
07
00
05
3F
3C
06
05
3C
04
03
01
01
05
03
02
06
3F
3C
3D
3D
3B
04
04
39
3E
05
03
07
0E
3F
3E
3E
00
38
01
39
39
01
03
39
3E
3A
00
05
3F
07
3D
09
3E
05
3C
00
09
3F
3E
3E
3C
3D
01
01
02
01
3F
04
02
01
0A
03
01
3C
03
07
39
3B
3A
3E
06
3A
02
3E
3E
02
00
38
01
05
3B
3A
08
35
3E
06
03
02
04
00
03
3C
3C
3F
3C
3E
3E
3C
3F
3C
3C
03
02
37
02
04
34
37
02
3D
00
3F
3C
3C
02
3F
06
00
35
03
05
3A
3F
07
06
05
05
3B
01
00
03
3F
02
3C
3F
37
12
06
3D
3F
02
3C
06
02
37
02
3B
3C
38
01
37
3F
04
3B
03
03
00
3D
3A
03
02
3A
01
04
01
3D
05
3A
3E
3E
38
36
00
06
00
04
3C
04
3B
04
3E
3F
02
39
3E
3D
01
36
0A
01
36
09
02
3D
03
0A
01
07
00
3C
3F
05
02
04
39
00
04
36
07
09
03
06
00
02
01
39
08
3D
07
04
05
02
04
3D
3B
04
3F
3F
04
3A
05
05
0A
3D
01
06
38
3A
3A
01
03
02
04
3A
3A
37
07
09
37
3C
05
07
3B
02
04
3B
00
39
00
3F
38
00
02
3C
3F
3A
39
07
05
03
38
00
3E
3D
03
0A
04
00
37
3A
3D
3E
3B
01
35
01
3C
39
3E
03
03
06
39
3B
37
3E
09
3E
09
0A
02
01
00
3F
3E
03
3D
02
3E
00
01
05
3A
06
03
3E
3F
00
02
3F
00
04
0A
3B
01
3F
07
3C
03
07
02
3C
03
3D
3D
00
09
06
07
39
38
03
04
07
3B
3D
3A
3E
3B
00
06
01
0D
03
07
07
03
06
02
09
03
06
3D
3F
03
3F
07
3D
01
3D
06
03
3B
3E
3F
3D
02
06
36
04
07
00
07
3C
3F
01
05
05
03
06
3D
04
3B
3E
38
3E
01
03
39
00
39
00
08
02
3A
02
3D
05
04
3D
3C
3A
39
3F
02
3C
36
3E
3D
04
04
03
03
09
3F
3C
03
3F
01
00
3E
02
06
02
08
05
02
04
03
09
01
3F
08
0E
3E
03
06
02
08
3D
02
06
3B
03
39
00
3E
04
0A
06
05
00
3E
03
03
04
00
03
39
3E
3B
35
00
3B
08
00
05
39
3A
3F
3F
38
07
3E
3B
3F
0B
3A
3F
03
3D
02
39
02
3A
3E
01
3A
04
02
02
3B
10
3D
04
01
3C
03
3B
02
07
39
06
04
02
0C
00
35
0A
08
3B
08
3D
3E
38
3E
3F
39
3D
04
09
3F
3A
3F
04
3B
3B
00
01
3D
03
07
03
01
3F
3E
38
3B
3E
04
01
3F
3D
01
00
3E
03
07
00
3F
00
3A
3E
08
04
04
06
02
3F
07
3F
07
3C
04
3D
3A
03
3C
02
0C
3F
04
3F
38
04
09
04
0A
3C
37
07
35
02
00
07
05
03
3F
05
3E
35
35
02
04
05
3A
3E
3D
3C
01
03
00
3A
3F
3D
05
02
39
3B
04
3D
02
04
01
3E
08
3B
3B
38
04
3B
3E
05
3F
3C
01
03
3D
02
03
02
00
07
03
04
3E
04
03
3E
3E
01
3D
3B
08
06
03
3F
3F
08
08
02
3D
00
07
02
3D
39
3F
03
00
07
02
3F
08
02
00
05
3C
02
04
3E
38
02
3E
06
02
39
00
00
3E
3E
3F
04
3E
05
00
38
3F
3B
02
3E
01
03
08
03
3A
07
3D
04
02
06
01
00
07
3D
02
38
06
02
01
38
03
3C
3C
3A
3E
08
04
02
08
3E
03
3F
09
01
3A
02
03
3F
01
01
3E
02
3B
3E
04
00
3E
00
00
3E
01
0C
02
09
3F
38
05
0A
3F
36
01
03
03
06
01
3C
3A
38
00
02
3C
02
3C
06
3C
38
01
39
3D
04
03
37
3C
02
04
3C
02
3D
03
06
3C
3D
3C
3D
3A
03
3D
05
3B
01
3D
3F
3E
37
3B
01
08
06
09
06
03
3D
00
02
3B
3F
06
01
3D
00
3A
3C
3D
00
04
3D
04
00
3B
3C
03
3C
3A
01
3D
3E
38
09
3E
3B
02
3D
02
3B
3E
3F
3F
3F
03
3A
39
3F
3B
00
02
3D
3E
00
06
3C
00
3E
3E
3F
03
3C
3D
3B
06
06
03
3E
08
3E
39
04
3D
02
3E
04
07
01
05
3F
03
3D
06
3D
06
3E
09
01
04
00
3D
08
08
0A
3F
01
3E
3B
09
3F
04
09
06
3B
3A
00
3F
39
06
01
04
3D
38
0B
3E
04
06
36
06
02
00
3C
3C
3D
05
3F
05
03
02
0A
05
39
01
01
05
3B
04
05
3D
3F
3E
00
03
3B
03
37
3F
02
02
02
04
01
08
01
00
37
01
39
3A
3B
09
04
3E
03
03
3F
02
3E
3B
3B
3F
00
00
01
04
02
00
02
39
02
3C
36
3C
31
39
39
3C
01
38
3E
38
05
00
01
06
3E
04
01
01
02
3D
3E
38
08
01
3C
3B
00
39
3A
05
3D
3A
04
3A
04
00
06
3D
09
08
3C
06
3E
02
3E
02
03
02
3E
07
02
04
03
3D
03
06
06
03
00
06
0A
3F
03
3E
3F
3F
37
01
3B
3E
01
04
3F
04
3C
35
3D
04
3E
01
3C
3D
3D
01
00
37
03
3C
3C
01
3C
3C
3F
04
10
0A
3E
07
3F
09
3F
35
3D
05
05
3C
07
3D
3A
3F
01
05
01
06
3D
3C
06
3E
00
3D
04
3B
04
39
39
03
3D
06
38
01
3D
3D
3D
3F
02
00
3D
04
02
3B
04
01
00
3E
38
03
08
01
38
00
3E
39
3A
02
04
3B
00
07
3C
3F
3E
3B
03
09
00
03
00
04
09
01
03
39
02
08
0D
00
3E
07
3A
03
04
3F
03
3F
06
04
05
34
3B
00
09
3B
3D
01
3E
3C
00
05
01
01
05
3D
3D
02
01
36
06
36
03
05
3E
02
00
3A
00
3A
3D
3C
07
01
03
04
3F
3B
01
3F
3E
39
3A
07
02
3A
03
00
3A
00
37
3D
3A
3B
05
3E
08
06
38
03
3A
05
08
00
09
3E
39
03
08
3F
3D
09
3A
3D
3F
3C
00
0B
07
3E
08
3C
3A
01
0C
00
3D
01
3C
02
09
3D
01
06
36
3E
3D
3C
3A
06
02
01
04
3E
0D
38
3E
04
3F
02
3C
3B
3E
00
3E
09
3F
3B
3E
3C
02
3B
05
06
3E
00
01
05
04
3C
3E
3C
04
08
05
02
3C
3B
3D
06
03
01
3C
03
03
3F
02
3F
3F
3D
00
38
06
07
3D
04
02
3D
3E
3E
00
08
3F
00
01
05
3E
03
3E
3A
01
07
01
03
3A
3F
3D
04
3E
3F
36
3F
3E
3F
06
00
03
08
3A
3F
00
34
03
04
07
37
3E
07
3E
04
3B
06
3B
00
37
3F
3E
38
3D
38
39
3D
3E
3C
03
39
3F
08
02
39
04
06
02
04
01
01
3B
02
00
3D
35
3E
3F
04
3E
02
07
3E
06
03
3B
36
02
02
02
01
3F
3E
3F
00
02
3B
3A
01
04
02
03
06
03
3F
39
37
3D
02
04
3D
3C
05
05
01
3E
3F
00
04
3C
02
3E
39
3A
39
02
02
04
07
02
05
09
39
04
38
3F
3C
3D
02
04
3C
05
3E
3B
05
05
07
3D
04
07
00
33
3D
3E
3D
3F
06
06
00
3E
3E
04
3B
04
3B
3E
04
3E
01
3A
39
01
02
04
01
39
3D
02
02
3E
3F
3F
02
3C
02
37
3E
00
38
3A
3B
00
00
03
00
3E
06
03
39
02
03
3F
3D
3C
3A
3F
00
01
01
07
00
02
39
03
3D
3F
36
03
3B
01
03
3F
00
3A
3D
00
02
36
3C
36
02
07
00
06
03
04
02
33
03
3E
39
06
03
07
04
03
03
3D
3A
04
03
01
01
3E
01
3B
3C
05
05
08
3D
00
38
02
3A
06
03
00
03
07
3C
03
37
01
00
3D
05
38
02
32
07
3D
37
06
02
3F
04
03
04
03
05
00
06
00
04
00
01
38
02
09
00
3B
3B
00
38
39
3C
04
04
05
37
05
00
01
08
38
01
05
08
3D
02
3F
3D
3F
3D
07
37
05
3D
05
0A
38
0A
03
08
05
03
04
3E
37
3F
04
03
3D
02
3E
00
3E
0B
00
3F
05
3E
3E
3D
3F
39
02
3E
05
3D
03
0D
3E
03
3F
01
00
36
0A
03
0B
05
01
3D
15
0A
05
06
3C
0B
37
3F
0A
35
05
00
04
0B
00
3D
0D
05
31
07
39
3C
03
00
37
3F
36
38
04
3D
3B
3D
0A
3C
39
3F
02
02
04
02
39
3E
00
3B
0B
02
3E
3F
04
00
3E
02
00
35
09
0A
01
3F
08
08
05
00
08
04
01
02
02
04
00
3F
3E
3F
05
03
06
00
08
08
02
02
03
3C
01
3B
00
05
3E
0D
06
3D
08
08
01
3F
00
02
3B
3D
38
05
04
3F
05
37
02
3A
07
3A
3C
02
39
08
3F
09
38
39
3B
04
3E
3F
3D
3D
04
3E
3D
03
03
3E
02
3C
02
06
3B
02
00
06
02
02
06
02
01
08
3E
3E
05
3E
3D
04
01
3A
02
06
3C
02
3D
09
3E
38
3D
02
03
39
03
3C
09
00
06
05
3D
0A
3B
01
02
00
3C
06
0B
02
3E
3B
3D
3A
3A
37
00
04
04
3B
03
3D
03
3D
3A
06
00
07
02
39
3F
08
3E
3D
05
3D
0A
3B
3E
07
3C
3D
3D
3C
01
39
01
07
00
39
05
02
3D
05
04
3E
3F
04
05
3B
38
06
3D
05
3D
3B
02
02
3E
3B
3B
07
02
3E
00
3B
3C
04
03
3A
39
07
39
3D
04
03
3B
39
3C
08
34
39
3D
3C
38
06
02
3A
01
3A
3A
3B
3A
03
01
05
04
39
3B
3E
39
08
3B
39
3D
03
07
02
04
3E
38
3A
3F
3D
3C
07
06
0A
05
3E
07
06
01
05
03
3D
3C
05
0B
05
01
02
01
05
3E
3A
0A
3C
00
3C
03
3D
07
04
3E
3D
01
02
00
3E
01
02
03
04
07
0A
3C
04
00
02
39
3F
04
06
0A
01
09
0B
39
37
3D
01
3B
07
3F
08
3E
3F
02
06
3B
37
3D
3B
01
03
0B
03
38
37
08
3B
39
02
3D
03
3E
3F
3B
3F
3A
3D
05
06
04
3A
01
3C
0A
3E
3C
00
07
01
3C
3C
3D
04
06
3B
02
3D
3B
35
3F
3A
38
01
04
3F
3E
00
3E
07
3C
3D
01
3E
05
03
39
3D
38
3F
3F
03
00
38
00
3C
0A
3E
01
05
3E
08
01
01
06
3D
3E
02
00
3F
3D
04
03
3C
06
0A
37
39
3D
39
0C
3E
0A
0A
04
10
02
00
3C
3D
01
02
01
3E
3D
03
0E
04
0D
02
3D
11
3D
02
0B
00
05
0B
3B
04
04
04
03
3D
00
01
3A
02
06
3D
03
3C
04
39
3E
07
3F
07
3C
04
3D
3C
05
00
02
01
01
3C
05
3E
00
07
01
39
03
06
06
3F
02
3D
03
04
06
3F
05
07
3A
05
3D
3A
02
00
06
02
3D
08
06
3D
04
07
3B
02
3C
3B
02
3B
3E
00
3D
3F
01
02
01
03
00
06
3B
02
3D
3D
38
03
3F
3D
07
00
03
3E
3B
39
06
3C
04
04
04
3D
3C
02
3B
3C
02
03
3D
04
3F
00
3B
05
3E
3A
3D
03
00
3E
01
3D
03
03
06
3B
00
3F
05
08
02
3D
03
39
00
3B
3D
3F
39
3D
03
3A
05
02
05
05
01
3D
3E
3E
02
03
3E
07
01
02
02
3F
3C
38
07
3A
05
01
07
05
00
05
00
02
3E
3F
06
03
3E
39
04
3E
3A
04
3B
3A
07
3D
3F
3C
03
3C
02
3F
3B
3C
35
3F
01
3C
3D
00
02
02
04
03
04
3B
3E
01
03
01
01
01
3F
3B
3D
09
3D
3B
3F
3F
07
3F
04
3A
06
05
04
00
04
3E
3D
09
3D
00
04
06
3B
3C
05
3A
06
03
38
09
3A
37
3F
03
39
04
03
01
3D
02
06
3E
01
06
02
39
02
3D
39
03
3C
00
3F
3E
3C
39
3E
07
00
3A
39
01
3F
01
3F
00
00
03
08
3F
3D
00
02
3D
37
3D
37
01
03
02
3A
08
01
38
00
3B
3D
38
39
06
3B
3D
39
3C
3B
0B
3C
3B
05
3D
38
3D
02
3C
04
02
3D
3C
06
3E
04
03
33
37
3B
3B
01
3E
3C
3D
03
3B
00
02
03
3E
3F
05
01
00
00
38
01
01
38
03
3B
3B
01
3C
01
01
02
01
3D
3F
06
38
0B
3C
0B
02
02
04
3A
07
39
3E
3C
03
38
3C
3F
00
0C
3D
06
3B
3D
3C
39
02
00
02
02
04
04
3E
07
3F
3D
09
00
02
02
07
38
3A
07
03
3B
08
3E
3E
39
02
3B
3C
08
3C
01
3C
3B
3A
00
03
3D
3C
3F
3C
01
05
03
3E
3D
3E
3D
32
3C
3C
00
02
3E
05
03
3D
3F
02
07
05
3E
03
02
38
3E
3E
3E
3D
03
03
06
0A
3B
05
00
3C
3E
08
01
00
39
00
01
06
04
37
3E
01
08
03
3F
3F
04
3E
03
03
37
00
03
00
3F
3B
00
3C
00
3F
01
01
3A
38
3B
38
03
3C
04
01
3B
3F
36
01
39
3E
01
01
35
01
3E
3C
3D
38
00
00
04
02
35
3B
3E
36
0A
02
04
3E
3F
3F
39
38
3C
0A
04
00
36
3A
05
01
3F
00
3C
3C
39
39
09
3C
01
3B
01
06
35
3B
0A
00
02
01
3E
01
03
02
01
06
00
3F
3D
07
3C
3B
05
3E
3D
39
02
3A
00
02
37
3E
04
37
3F
06
06
01
3E
09
07
3E
01
3A
3E
01
09
3D
3E
04
04
3A
06
01
3F
05
03
06
36
3C
08
3C
06
01
03
04
3F
03
3E
39
00
3F
03
04
00
02
05
3F
3F
3D
3F
06
3B
3F
02
01
3F
02
01
3E
04
36
3F
3D
3C
03
03
06
3F
3F
02
05
00
3D
3F
00
3B
3C
03
3A
3E
36
08
3A
03
3F
07
36
03
0E
39
08
39
00
3E
37
05
01
3D
3A
04
3A
01
38
02
06
3A
3E
3F
0A
3C
3C
03
05
03
04
07
08
06
3D
0C
01
06
07
03
3D
01
3F
03
3A
38
07
02
3C
03
3C
01
08
03
00
07
3A
01
0C
3F
02
03
02
03
3E
06
04
3B
02
03
08
01
3E
04
04
06
3D
03
07
36
2C
05
00
03
06
38
06
2F
3D
3A
33
39
3F
03
3D
3E
34
3E
3F
05
07
3A
37
3E
05
39
35
00
01
38
3D
3C
06
01
38
3C
03
3F
01
07
00
3E
07
01
02
37
3B
01
3E
3A
39
3B
02
07
05
3F
00
3B
08
37
06
37
00
04
02
39
06
05
37
3B
04
06
38
00
01
3F
3B
36
38
3C
3F
03
07
00
03
3D
0A
09
06
09
3E
3C
38
3B
39
02
3E
3E
05
3B
3C
04
06
07
3B
01
3B
3F
05
39
3B
01
04
04
01
3A
3D
07
02
3C
3D
3F
3C
05
3A
3B
03
05
00
02
02
01
3D
04
3B
3F
01
3A
06
39
3A
39
3D
3C
05
3D
04
3D
02
01
39
00
3E
04
02
00
35
36
35
07
05
00
04
02
3D
3D
01
04
07
3C
05
00
3E
06
3C
06
3A
3C
3F
3F
03
04
07
01
03
04
01
3A
01
08
07
37
03
37
02
3D
01
3E
39
00
00
3F
3F
3A
00
00
04
05
3F
3A
3B
06
03
07
05
04
00
01
3D
37
03
03
01
3A
3A
06
03
03
3D
3A
3B
00
04
3D
05
3D
3E
3D
39
03
04
01
3D
3A
04
04
03
07
05
00
00
3A
3C
3D
03
07
3D
05
02
3D
02
03
03
3F
3E
3D
05
07
08
07
3F
02
00
38
38
05
03
39
3E
39
06
03
3F
00
04
01
03
04
02
05
3A
3E
3B
03
02
3A
05
3E
03
3E
3F
3D
01
3F
3D
04
03
03
06
08
3F
05
3B
00
00
3F
01
3E
38
00
04
37
02
3F
3E
3C
00
01
3A
38
08
3B
37
01
0A
3F
09
01
0B
3C
3B
05
06
01
3B
05
02
03
08
02
09
04
02
01
3E
00
03
03
3F
01
00
3E
03
03
03
00
04
3B
3B
05
3A
02
06
3A
09
3A
3D
07
3F
03
03
3B
01
04
02
02
3C
00
02
07
02
03
3F
3D
39
06
03
3F
01
01
3C
3D
06
01
02
00
3E
01
01
3E
00
00
09
00
01
07
3A
3A
02
09
3A
0B
3E
04
00
06
3C
3B
03
38
01
01
08
37
3F
0A
05
0C
01
3E
3C
05
03
3B
37
3E
3F
3D
05
02
03
3A
3F
00
02
3A
00
3D
37
03
37
04
03
03
00
3E
3D
3D
00
3C
01
07
3C
00
39
3A
3E
00
00
03
38
3A
3D
11
02
04
3C
3B
02
3D
38
02
05
3E
05
3C
3D
39
3A
3F
3F
03
3E
3F
3F
04
3A
3B
3E
3D
3E
3B
05
00
3C
00
02
09
3C
05
00
00
08
3C
35
01
3F
3C
3B
01
09
02
04
39
03
01
05
3C
05
05
3E
06
04
38
05
38
07
03
3C
06
3D
39
3B
3E
03
36
34
00
38
05
3E
38
05
0B
3B
05
03
3F
3D
07
3F
04
00
39
01
3D
04
3C
05
08
3D
09
07
04
00
3A
04
01
03
3E
04
06
06
01
3A
39
04
0A
07
02
01
3F
3E
3F
00
02
00
3A
04
3E
3E
02
3D
3D
05
01
03
00
07
01
3C
06
3F
3F
3C
38
3A
05
04
38
3E
3F
37
3A
3D
05
39
03
38
05
04
3E
01
04
04
01
03
3F
04
03
38
04
3D
03
3F
03
3F
03
3C
3D
00
03
06
02
05
3E
05
01
3E
00
05
39
00
3E
02
3A
00
02
05
04
37
08
01
3B
3E
3D
06
3F
3F
02
3E
3F
3B
3E
00
04
3A
03
3D
03
3F
06
3A
00
02
0F
06
39
3F
07
05
37
3B
38
34
3D
39
07
3B
04
00
3F
3F
02
01
3F
3E
05
02
07
39
3C
3D
3F
08
3F
01
3C
08
07
39
01
01
00
02
05
3C
02
01
3D
02
3E
03
36
01
06
00
04
00
07
37
39
04
3D
38
3D
06
3E
06
02
08
07
01
3F
00
3B
3F
05
3C
06
04
03
00
04
37
03
05
3E
3C
3B
3E
38
3E
03
39
03
05
0A
0A
3C
00
37
01
3A
38
00
3A
3C
3B
04
3A
02
01
3A
04
3A
3C
05
3A
38
05
02
3E
00
3B
04
3B
07
01
06
01
3B
04
08
3D
3A
01
3A
01
3C
05
02
3D
3F
3E
00
05
05
06
3C
04
04
01
03
3E
3F
01
04
36
08
3B
3F
0D
04
36
3A
3D
08
38
3D
05
36
02
3D
39
0B
07
3C
0C
00
04
05
00
3E
01
08
02
3D
3F
3C
3D
05
01
07
3C
03
3B
00
08
3F
02
3B
08
3B
03
3B
01
3D
3F
08
02
39
3D
06
00
3D
3D
39
06
07
3C
3E
01
0A
3F
0A
02
3D
06
3F
00
36
38
3B
04
00
03
00
04
0B
09
0F
0D
05
04
35
3E
08
3F
06
03
01
00
3D
3C
05
09
06
0C
3C
3D
02
3D
35
3E
01
3C
0A
3A
3D
02
05
01
3D
00
06
3F
01
09
02
3F
3B
3C
39
04
02
3D
03
02
3B
01
3C
04
09
03
01
00
01
00
38
04
04
04
01
3A
01
3D
3A
3A
3C
3B
02
3D
3A
01
04
01
02
3D
3C
07
07
07
05
3C
3C
3A
08
03
04
3D
3D
06
04
05
02
05
08
0E
37
05
3E
3E
3C
03
06
3B
00
35
3C
03
01
00
3B
38
3D
03
04
00
34
3A
05
00
06
3F
00
06
03
03
05
03
01
3E
01
39
04
02
04
05
3B
06
3C
01
3A
39
03
04
3C
05
38
00
01
3A
05
01
06
01
3F
3F
3F
02
06
08
3B
07
38
07
3F
39
07
3D
3D
3D
38
3A
3D
3E
07
07
3D
00
0B
3B
3C
02
02
01
3D
03
04
3A
3A
04
3F
3A
3A
3F
01
04
01
04
00
09
02
3B
3A
3C
08
3C
06
05
3F
3A
00
35
00
04
3D
08
3F
3E
03
04
3D
37
02
3C
3D
06
08
3D
02
06
3A
39
06
3B
04
05
3C
01
06
3E
38
39
3C
34
3B
3C
3B
39
08
06
37
00
3F
05
3F
02
00
37
04
00
35
39
01
3F
3E
3F
03
09
01
3A
3D
3F
3F
02
06
3E
35
3B
02
3E
0B
03
3B
05
00
05
38
3F
3B
04
07
02
39
05
38
39
3F
3E
3E
03
07
3E
08
06
08
05
03
02
3F
02
3A
3F
3F
08
04
3C
02
08
0A
04
07
36
03
0D
3D
07
3A
3E
3C
00
0B
00
0C
02
3F
00
3E
3F
3C
39
33
03
03
3D
07
03
03
00
01
04
3D
3C
02
0A
03
3D
3A
05
05
3A
08
3D
05
08
06
3E
01
04
3E
00
3B
3B
3D
37
39
3D
3D
3D
3D
01
3A
01
39
02
05
07
3A
3C
01
3C
02
3E
3B
0C
01
05
05
3D
3A
02
09
04
37
34
3D
03
03
3E
0D
08
39
09
00
0B
00
09
00
01
3E
01
3E
3B
38
3F
00
05
35
3F
3B
3B
3F
38
38
06
3E
04
3F
3D
3B
00
01
04
00
04
3F
06
3F
00
01
02
01
00
01
3E
39
00
09
3E
01
02
3D
03
01
02
3C
08
3F
3F
07
3F
3C
3F
3D
00
3F
00
3F
37
01
3A
04
05
39
3B
01
39
09
05
01
3E
01
03
3D
02
3C
05
3D
3D
3E
03
38
03
36
04
3D
3A
38
02
01
3C
04
01
03
04
39
3D
00
3E
3C
03
3F
3E
01
00
3E
3C
3A
03
00
04
3B
07
07
3D
3C
01
3D
01
3C
3E
05
02
00
00
01
3F
05
08
03
00
3D
08
03
02
3D
3A
06
3A
39
03
3D
34
05
06
38
05
05
01
39
01
01
39
02
3C
05
37
01
05
00
04
03
05
3F
01
39
38
00
3A
00
04
00
03
3E
01
00
03
02
00
0B
00
3E
3B
3F
05
38
3D
38
3A
02
00
01
02
00
07
01
3C
38
01
04
07
3F
04
01
03
3F
02
04
04
02
09
05
03
36
3D
03
34
08
01
05
03
39
3A
3C
39
08
00
3C
3B
3A
07
3C
38
3E
09
3F
3D
3E
03
00
04
36
05
08
07
02
39
3E
00
04
3E
3E
01
00
3F
08
3D
3A
03
3E
38
3F
00
3C
3E
01
3C
08
3A
38
03
00
3D
00
03
3A
36
09
3F
39
03
02
08
00
3F
07
36
3F
00
3F
3D
39
01
03
0B
01
06
00
03
01
02
3B
06
03
07
3B
3A
3B
38
04
09
3A
09
3F
00
05
3A
3C
3E
05
39
3B
03
02
04
0D
00
39
01
02
03
02
00
3A
3F
09
06
01
3A
3C
3E
03
05
3D
01
3E
02
3A
3A
3F
3D
3D
00
33
3C
03
03
04
03
02
38
3E
00
00
3F
00
00
3B
3F
02
03
3D
03
06
09
3A
3F
3B
3E
00
37
3C
01
3F
3F
00
02
02
39
0B
02
38
09
02
3E
03
35
3E
39
3E
02
31
3C
3B
3F
3D
03
03
3F
38
3C
03
39
39
01
04
3A
3F
05
3D
3E
39
03
3B
3A
07
3A
0A
03
04
01
07
03
3F
01
04
02
02
02
3B
3B
00
3C
02
3E
3B
3D
08
08
04
3F
3F
02
3D
02
07
02
38
03
04
01
3C
0A
0C
3F
3C
03
02
07
3C
01
01
08
32
3E
08
32
02
3B
05
3F
34
05
01
0A
3C
3B
3C
04
01
39
3E
39
01
3F
0D
01
38
04
37
02
37
03
00
00
3B
05
04
3D
3A
3D
01
39
3D
3B
05
3E
03
01
3E
03
03
3E
00
03
02
02
3D
3F
07
01
01
06
3D
39
07
06
08
3E
0A
09
3B
01
0D
02
3F
3D
00
00
01
3B
07
04
3E
38
0B
3C
03
03
00
3D
3E
00
3A
09
0B
05
3D
08
02
3C
00
03
03
03
05
08
06
3B
05
04
3D
3B
08
01
04
3C
03
3B
03
00
38
08
00
3A
02
05
03
3E
01
07
00
05
3A
08
3F
3D
05
3C
0C
3E
3B
04
37
3B
00
3C
3D
00
09
0C
3B
3D
3E
3E
00
3B
3E
3C
3C
01
3D
38
01
06
0E
06
3F
35
3E
00
35
38
3E
3C
3E
36
04
37
03
3E
01
38
00
3D
06
01
36
39
35
02
04
3F
03
3F
01
3D
00
07
3E
01
3D
04
3C
08
35
07
3F
01
03
38
3E
06
3C
3C
3A
38
3C
03
06
02
3E
3B
05
06
04
38
01
02
0A
04
01
3A
3B
3B
01
01
3E
04
3D
3F
02
37
01
02
0A
08
00
35
08
03
3E
00
39
3A
3A
01
00
32
00
03
07
00
39
3B
3C
01
3E
01
3D
3D
3C
04
03
01
04
05
00
04
00
03
3C
02
01
04
3F
03
01
07
03
07
3F
04
03
02
3E
3D
3A
3E
3B
03
3E
02
03
05
03
03
03
3D
0D
02
08
02
3E
3F
02
00
3E
3E
00
09
04
3B
0A
06
3E
05
03
3C
06
3E
3B
3C
3F
03
02
38
3B
3F
00
3B
3C
04
04
00
3E
3C
3C
06
3D
3D
04
05
05
03
01
3A
38
3E
08
08
01
06
03
07
03
04
05
39
3B
02
00
01
04
01
3A
01
3B
04
05
03
00
3D
01
05
38
05
05
01
03
01
05
08
3A
3F
3D
04
36
3A
3E
00
3B
08
38
07
07
01
00
04
3D
03
01
04
3F
3C
03
3F
39
08
3D
39
39
03
04
06
3F
06
3F
05
01
05
0C
3E
3D
3B
3E
3B
37
3F
05
0A
3A
05
3B
3C
00
3A
3F
01
37
3E
3E
01
0C
00
05
02
39
3F
39
3F
3F
3D
00
02
39
07
06
3A
01
05
3C
06
3B
03
02
03
3B
01
3C
03
39
3E
04
3F
05
3B
3D
02
3C
3F
35
35
3D
03
08
01
36
0A
3C
37
3F
03
3B
0C
04
00
3B
03
02
00
3E
02
39
3F
38
39
06
05
37
0A
04
02
09
39
39
06
3D
00
3A
05
03
03
09
0C
05
05
01
3C
00
3C
39
04
38
3A
01
37
0A
3D
01
06
04
04
3F
3A
05
05
00
01
00
3E
3D
3F
3E
05
08
01
08
01
05
04
01
06
02
3B
3F
07
06
3A
3E
03
3D
04
01
3C
01
02
0A
02
3D
0A
04
02
3E
03
02
3C
3C
00
03
3E
02
39
0B
38
3D
3A
03
03
3D
3D
01
3A
38
3F
03
3A
3F
09
3F
3E
3A
39
06
07
3D
3F
00
3F
3F
3E
06
0A
3F
07
01
3C
3F
03
06
3C
37
04
3C
39
07
00
05
01
02
3E
06
3E
03
09
01
05
00
3E
00
3C
3F
06
08
3F
38
01
07
06
0B
03
06
04
02
02
04
3C
02
04
3B
05
04
02
02
06
0B
07
3C
39
3C
3D
00
03
3D
3B
3F
08
3C
08
39
02
3D
3E
02
37
3A
00
07
3E
3D
03
36
0C
03
03
3F
07
3F
08
04
3A
3C
00
05
33
07
3D
3D
01
3B
02
09
04
01
01
01
3C
01
3B
3C
07
3A
3E
02
01
3E
08
07
3D
00
05
3C
3B
07
06
38
02
3A
3E
02
04
08
04
02
05
08
01
02
3E
3B
3C
3D
38
05
39
3B
3B
01
04
04
06
3A
00
00
00
05
02
05
3C
0C
07
03
3A
3F
3C
0A
00
39
3C
08
01
3F
07
07
3B
07
3F
05
04
38
3C
3E
38
3D
3B
35
05
00
3F
05
00
06
3A
06
3D
3E
3B
02
01
03
05
02
04
3D
3B
3E
03
3A
04
02
05
0C
3C
08
3C
3B
03
3A
03
39
3A
3A
06
3E
00
3F
01
06
01
04
3E
3E
3E
07
02
38
3B
3B
3A
39
05
3F
02
3D
3E
3C
3B
03
39
07
03
01
00
3C
3D
39
05
3C
3D
06
02
3E
3F
39
00
3E
3F
3A
39
3B
07
3F
3B
00
3C
3B
04
3F
3D
37
05
39
00
08
01
05
3F
00
02
3B
38
02
39
3D
3E
3E
03
04
3E
3A
00
03
3A
04
01
3E
39
3B
3D
03
3D
07
03
02
38
06
03
37
3B
02
02
3E
01
07
3B
02
39
08
01
01
3B
3E
06
00
33
3A
3B
3F
04
3D
38
37
3F
3B
3A
0A
3C
01
05
02
38
05
39
3E
0C
0A
06
34
03
37
3E
3C
00
3B
09
00
03
07
07
3C
02
06
06
3D
3C
3E
04
06
01
03
08
3D
03
3D
3A
03
3B
02
00
07
3A
3F
01
3F
03
05
09
3B
3B
37
3C
01
01
39
02
3B
03
08
00
36
39
03
39
33
00
3A
00
3E
3E
3F
3E
31
01
05
3E
3F
02
37
02
3F
3A
3C
3E
3A
0D
03
3E
39
3B
04
39
04
01
3C
07
06
3F
3D
3B
3D
04
05
00
3B
07
06
00
0B
39
3E
05
3C
3C
02
06
01
00
3C
06
04
04
01
02
3F
3D
3E
03
3B
00
3F
39
06
01
01
3A
3A
3D
02
07
3F
3C
03
04
01
03
08
3F
3C
3B
07
00
3F
08
05
3D
02
3C
3D
3D
03
3B
00
3B
3C
02
03
3C
39
09
02
3D
01
01
3B
04
08
08
01
3D
07
07
05
3B
3E
08
01
3E
04
01
07
02
00
07
04
06
07
02
3C
07
3C
3C
3E
3F
3D
02
3D
00
01
04
08
3A
01
09
05
01
3F
06
3C
01
03
03
03
04
04
3C
3F
00
3E
01
07
39
04
01
04
3A
06
06
05
01
3B
01
3A
03
3E
03
01
3C
3E
02
06
3E
3D
07
3B
3D
39
3D
3C
3B
01
3F
36
01
3D
3C
07
02
05
3A
01
3D
01
09
3C
02
07
3E
3C
03
02
3B
3A
38
3C
01
00
02
3B
39
39
3C
3E
04
3C
06
02
01
3A
00
01
3B
3D
05
3C
3C
05
07
3E
00
05
34
02
08
04
08
3D
01
3F
03
04
04
00
01
3C
03
3B
34
00
3A
3C
3C
3B
04
3A
36
3D
02
3D
39
07
3F
3A
3B
3D
03
06
02
3D
02
3F
01
3E
3B
02
38
3E
3E
39
3F
03
03
05
3C
3F
01
39
01
3A
39
01
00
3F
01
3E
0A
00
00
02
04
3B
3F
3A
3B
04
00
3C
3E
01
37
06
36
3C
05
38
3A
04
07
3D
36
3D
03
3E
3E
3D
38
08
3A
01
03
03
3C
3B
0A
3A
3E
3E
3F
3D
3C
39
03
05
01
02
3D
07
05
00
04
03
03
03
01
39
3D
3B
00
3B
02
06
03
05
3E
36
36
3A
3C
3B
3D
3A
3E
37
3B
3F
06
3D
3E
35
03
3D
3A
3B
3F
06
06
34
00
03
04
06
3D
05
07
00
00
05
02
3B
00
00
38
3C
38
01
3F
03
3F
3F
06
03
38
3D
02
39
3F
06
02
3C
3F
3E
01
03
06
03
07
06
3B
3D
04
00
37
3A
08
3A
06
38
04
00
04
0B
3E
3E
3C
00
3C
3B
3A
01
04
02
01
3C
00
3C
00
3F
05
03
01
37
3D
02
3A
00
00
03
02
06
00
3B
3E
00
36
05
05
3F
3D
00
3F
03
03
3B
3F
3E
06
03
3F
04
05
3D
04
3B
37
39
3E
00
38
00
02
01
3B
02
08
3D
02
3E
3F
08
04
01
02
02
04
08
08
3E
3A
02
01
09
3E
00
3F
00
3B
3F
02
3B
00
3D
0A
3C
06
3E
06
3B
3A
01
3A
00
06
04
04
00
06
3B
08
3B
07
3A
00
3D
06
00
08
3E
3C
08
3A
06
3A
01
04
01
04
08
08
07
3C
03
02
3A
3D
3D
3B
08
3F
00
06
07
3A
01
3B
08
04
03
08
05
06
3D
3A
0A
3D
01
05
03
3E
01
3D
09
39
02
04
00
3A
3C
3E
3B
3E
07
03
3F
05
3A
3B
02
3D
3E
3C
06
3E
01
03
3C
3D
08
39
3F
02
06
03
0A
05
05
3E
03
3B
00
00
3B
3A
05
03
00
38
03
03
3F
02
3B
00
3E
03
05
03
08
3F
06
3D
06
00
3D
3D
03
00
03
09
09
3D
02
3C
00
3B
08
01
3E
00
00
38
3F
3E
03
02
3F
01
08
01
09
03
03
0A
3D
38
01
3D
02
0B
03
03
3E
04
04
35
37
01
3B
3D
00
3E
02
00
03
06
04
03
3E
3F
06
38
04
07
04
3D
3E
39
3A
01
01
3A
0A
3D
05
3A
00
3F
00
04
00
03
3C
3A
02
03
04
3E
3C
38
38
3D
3A
03
05
05
38
3E
04
3C
3F
3B
05
02
08
38
01
3E
00
3F
3C
04
36
06
02
3E
3A
3A
39
38
3E
35
0C
07
3A
05
3D
07
35
39
39
39
04
39
04
01
01
03
37
3D
03
37
04
07
3B
3C
06
39
04
3E
3E
3C
01
04
06
3B
01
39
00
3B
38
39
3B
3E
03
04
39
3C
09
05
01
39
00
03
3F
04
00
06
3A
3C
3F
06
01
06
3F
3C
01
3C
3C
03
3B
05
3E
39
38
06
09
04
3D
06
05
39
0A
3F
3B
00
3F
3D
37
35
0A
39
39
3F
05
3D
06
07
3C
03
00
06
3F
08
01
05
05
36
3A
00
01
05
3F
01
04
02
05
3E
01
04
3A
02
3F
3B
03
3A
3B
3E
3F
3D
3B
04
02
05
00
3F
3E
3E
3B
3C
00
03
00
02
07
3D
01
05
00
02
3C
3D
06
05
04
02
3C
3B
05
01
3E
06
04
02
3B
03
37
00
3F
37
03
00
38
01
02
3D
00
05
37
00
04
3C
05
02
09
00
3F
3D
00
01
07
05
07
02
02
3B
07
02
3C
3F
3A
3F
3A
3F
06
03
38
09
05
0A
3D
02
03
00
3A
04
3B
3C
3D
03
3A
3B
03
3C
05
3B
3F
3D
3E
3B
3B
38
01
00
02
00
3D
01
3C
08
08
3F
39
38
3E
3F
3C
04
3B
03
00
04
3F
02
03
03
02
04
38
05
3B
3A
3C
01
06
08
08
3F
3E
3B
05
03
05
3E
3B
07
01
08
00
04
33
3F
05
03
3E
07
08
3B
00
03
04
3E
05
02
3E
02
3C
04
3E
06
3E
0B
3C
06
3E
3E
07
37
3B
3D
3D
38
36
04
01
00
3F
0A
07
0D
0A
00
02
3D
05
03
39
3E
3F
04
00
05
3F
3B
00
39
3F
3D
07
03
3B
3C
3F
04
3C
3F
02
3F
3D
3C
3D
01
04
39
3C
03
3B
00
3B
03
3C
00
3E
06
06
37
09
3A
3E
3A
04
3E
3B
38
07
01
00
05
01
09
05
3E
05
3A
3B
02
3D
3F
3A
3B
09
0B
01
07
3C
01
3F
38
3B
3F
3C
3B
3C
3E
02
3F
3E
05
05
0E
3B
00
02
3B
02
3C
04
3B
00
01
03
07
03
3E
03
03
3A
00
06
3A
02
07
3F
01
00
38
00
01
05
3C
3C
04
3A
37
05
3B
04
05
37
3D
3C
3C
3A
3A
07
06
3F
00
3B
3E
3B
3B
09
3B
3A
3E
38
06
04
04
06
3F
39
08
00
01
00
3B
05
3E
05
36
04
07
07
05
03
02
03
02
3B
3D
0A
06
3B
02
3A
03
3C
3B
03
01
3D
00
05
3E
3E
35
04
3D
03
3E
3A
0A
3F
3E
09
3C
3D
01
01
04
02
00
07
37
02
00
00
03
39
3C
3C
05
37
01
08
3F
01
39
3A
00
00
3D
3D
3A
3C
3D
03
02
3B
3F
38
3D
3F
3B
02
33
03
04
3C
36
04
0B
04
3C
01
07
3C
3A
01
3F
00
07
01
03
03
07
3D
08
3D
01
09
09
00
3F
06
01
0C
3B
01
03
07
3F
00
3D
03
00
01
00
06
3E
3F
03
00
3B
01
01
06
07
06
3F
04
3A
3D
3D
3D
3E
03
38
3C
3C
08
00
3F
3D
01
3E
3E
3A
3F
3C
3F
03
3B
3E
02
3C
3D
06
3C
3C
3D
05
39
02
3F
02
3F
39
3F
07
04
3F
3E
3E
04
04
06
01
04
3F
3F
3F
04
00
06
3C
01
0B
00
01
3C
3A
3E
06
03
06
08
09
02
01
00
04
01
03
00
3A
05
39
06
00
05
3E
07
3E
05
08
3E
39
3F
3B
07
05
02
00
05
02
02
3F
3C
03
36
01
00
3D
35
01
04
3B
04
3F
3A
03
05
01
39
3E
3B
06
00
39
3A
39
02
3F
3E
04
38
36
3B
39
38
00
3B
3D
36
04
06
00
3C
39
03
38
3E
06
3D
3A
01
01
3F
00
3D
04
39
02
3E
01
37
3A
00
3E
3A
39
05
07
3F
04
3E
01
3D
03
01
3C
08
01
35
3D
3C
3A
00
04
08
07
38
3D
03
03
3D
06
3B
3F
3E
39
07
33
3F
03
02
02
38
3E
3B
03
01
04
02
04
3D
01
3D
02
3E
3B
08
3F
36
3E
00
05
3D
3D
01
3D
06
3F
3A
3D
02
3D
39
3B
39
00
00
3E
05
3D
04
3B
01
3F
04
06
09
02
05
00
08
3D
03
07
09
06
00
3B
3A
00
3D
02
0C
04
0B
08
04
03
3E
06
09
03
3E
3F
3B
3E
08
3E
3E
3E
00
08
01
02
07
3B
35
07
3D
06
3F
07
3C
37
03
00
3F
3E
3A
39
05
06
04
3B
06
3E
3E
06
3C
3F
39
05
3C
3F
03
3F
0A
04
0B
3E
39
00
03
3D
02
01
05
3C
06
3D
03
37
3F
04
04
06
02
07
3C
03
3C
06
05
08
00
09
01
04
3B
02
04
3D
03
3E
3A
01
3C
07
04
02
00
3C
06
3E
06
3A
05
3F
3E
02
3E
06
01
3E
05
06
04
03
02
06
05
00
01
01
07
03
01
39
3A
3D
07
3F
04
3B
02
3B
05
00
00
39
3E
04
3B
07
3B
3B
01
06
07
3B
02
38
04
37
00
3A
09
3E
02
02
08
3F
03
01
37
37
03
06
3D
37
3A
01
06
04
04
3F
02
00
3E
01
3F
3B
01
00
04
35
0C
09
01
3E
3F
02
07
00
3E
06
34
3F
00
3D
3E
38
0B
00
39
38
3E
01
3A
3B
03
01
3C
05
01
03
38
00
03
04
3B
3B
04
07
3C
3F
3F
03
3E
06
04
3F
38
04
08
3E
39
04
05
3F
07
03
00
39
3B
3C
3D
04
06
0F
03
03
39
02
3C
38
07
04
3C
00
3E
06
3D
00
3D
02
36
05
30
04
3C
00
3C
00
02
3C
05
02
02
34
3F
3E
3C
01
39
02
3F
00
3B
3D
3A
04
38
3E
02
35
04
3D
05
3E
3A
36
3F
04
3D
02
37
3A
39
00
3B
01
07
01
39
3F
01
3E
3A
03
39
3D
3A
3D
33
3B
3A
00
03
39
3D
07
03
3E
0A
03
3A
3C
3F
39
02
3A
03
3D
09
3F
08
06
04
05
3F
03
3F
36
3B
3F
06
3D
05
3F
04
36
3B
02
09
3D
06
3B
3F
05
3E
07
05
3D
07
05
3C
3E
3A
07
07
3C
0A
3B
38
01
02
06
01
06
01
06
3D
3F
35
07
08
04
06
38
05
07
3D
03
3E
05
3C
3F
3D
01
03
01
3E
3D
07
3D
08
02
3A
39
3D
3E
3A
3A
07
01
00
3E
06
3E
03
3F
08
01
01
3D
01
06
3E
3A
00
3D
01
01
09
02
3F
01
3C
3E
3F
06
03
3F
3C
3A
3C
3E
05
3B
3F
39
37
04
03
3E
06
3E
3C
05
3A
00
3D
04
01
3D
3C
01
3F
00
01
06
3E
3E
3B
3D
3D
3E
3E
39
3B
3C
00
00
01
05
38
08
3D
07
01
3F
0A
06
00
08
01
04
0B
3D
09
06
03
07
3C
3E
3F
00
3E
05
39
3D
3C
04
07
3B
08
02
00
08
03
04
0A
3E
3E
08
37
39
02
03
01
3B
05
3E
3E
3D
05
38
05
3B
02
3E
01
04
36
03
06
3C
38
39
05
07
3D
04
01
02
01
03
3F
06
06
3E
3D
03
3B
3A
04
3C
3E
02
03
04
05
01
38
3D
09
39
05
3A
3E
39
3F
00
3D
07
03
3C
3E
05
3A
04
3E
3A
3F
09
36
3D
3C
02
3E
01
3C
04
04
03
0B
3B
3E
06
3B
00
3F
02
09
3A
3C
04
3D
3F
3C
3E
09
3E
05
00
08
3D
01
03
3D
35
08
3F
09
06
3C
01
0A
00
01
06
3E
04
03
06
06
39
02
04
01
04
3E
05
3B
3B
3F
07
3C
3C
02
35
03
3C
3B
39
3E
37
00
38
06
3A
3B
05
01
3D
3B
3D
38
3E
05
04
01
3C
00
39
03
08
3C
02
3C
08
3C
3F
05
39
3D
09
36
3F
04
3C
03
3D
05
05
3A
3F
37
05
02
38
3E
3F
3D
36
3A
3A
02
3C
39
39
03
38
05
09
02
06
38
3C
36
3D
3D
3E
05
04
33
04
06
07
00
3B
01
01
3C
00
06
03
38
3B
03
06
3B
3C
37
03
02
3D
3A
05
04
3D
3F
03
3E
00
02
3A
38
3B
04
3B
08
08
04
3A
3D
3E
09
01
03
09
03
05
03
3D
08
02
3F
05
08
02
3C
07
03
07
05
06
39
37
3C
02
3C
3D
04
07
3E
00
3F
38
3B
3D
38
3F
08
07
31
03
05
3C
00
00
09
06
3F
04
02
05
05
3C
3F
3C
05
3F
3D
05
38
06
07
38
3F
05
3D
06
03
3E
3B
38
06
05
03
3F
39
3D
02
3A
3F
3F
04
02
02
3E
3C
3A
0A
07
3C
02
3A
04
01
3E
08
3D
3B
06
3C
3F
3B
3A
07
04
09
07
3B
38
04
00
03
3D
37
01
3E
01
06
3C
3F
3A
3B
3E
01
04
3C
3E
3E
01
04
3C
3F
04
3B
03
3E
01
3D
01
01
03
3C
02
3C
00
03
0B
03
3B
03
03
3F
01
01
3E
3F
02
3F
05
3E
3E
01
02
03
3A
3D
39
03
00
08
3E
3E
3E
05
04
3E
00
3C
3C
3E
03
3B
3E
01
3A
00
03
3D
00
3D
3B
08
3D
00
3C
07
3D
3E
3A
05
01
02
3B
06
07
05
08
05
09
37
06
3D
3D
3B
05
03
05
3B
38
3A
03
3D
04
0A
00
3D
0E
3E
3E
3F
3F
3B
05
02
05
03
05
3E
02
3A
3E
37
3B
05
3B
3B
3F
0B
03
3A
07
3F
02
3D
01
3D
03
38
3C
09
3F
07
08
01
03
3E
3D
01
03
04
37
3A
05
07
09
3F
0B
00
01
3D
3F
09
07
06
01
00
07
05
08
3A
3E
3C
06
02
06
3D
3F
0A
05
3D
3B
3E
06
3C
3A
3E
3A
04
06
06
3A
04
3F
02
01
01
3F
01
06
3D
03
06
00
00
05
3C
3D
3D
3C
02
01
05
07
03
05
06
02
04
3E
03
06
03
38
3A
07
04
06
3E
05
03
3D
04
01
08
3F
00
01
3C
39
03
3F
07
3D
3F
04
04
0A
06
3E
3A
00
02
08
38
3B
00
37
02
02
06
02
3D
3E
3D
3A
02
3F
06
08
39
39
3F
01
39
06
3C
3A
3B
3B
03
3D
3F
3D
3C
06
02
01
03
03
38
3A
3F
04
3D
04
06
00
04
3E
01
05
03
05
3E
3E
38
3C
01
02
06
02
03
08
04
03
3B
00
08
00
3F
02
3B
3A
00
03
02
00
3E
05
3A
3B
02
3E
07
05
3D
3C
05
3B
01
3F
3B
02
05
3F
3C
3B
3F
00
0A
03
3F
03
01
3C
02
01
03
06
3C
00
08
06
00
3E
08
01
01
00
3F
3D
02
0A
38
03
03
05
02
38
08
04
00
36
06
37
03
3A
0D
04
3B
02
06
07
3D
01
00
04
3C
39
04
02
05
01
3C
02
3D
3C
04
3C
07
05
3C
03
3F
3B
03
01
04
39
3A
05
3E
02
3D
00
02
3E
3B
02
3D
03
3E
00
02
3E
07
03
06
06
3D
3C
04
01
04
38
38
01
3B
39
02
03
3D
02
3C
3C
3A
3B
37
32
39
3D
02
3E
02
3B
03
02
02
39
39
04
3D
3F
3D
38
03
38
04
36
3F
3A
3B
00
3A
02
3C
3A
37
3F
03
3B
02
01
39
38
00
05
03
01
3C
3A
00
05
3C
01
3D
3E
05
02
3E
05
3E
01
04
35
3C
07
3D
06
3F
3D
3D
00
3E
01
03
02
3C
04
02
3F
03
33
00
07
02
3B
3A
00
37
3B
00
0B
37
04
3F
00
37
3E
01
3B
38
3A
04
38
01
3E
3F
3C
36
3B
3D
01
3C
00
03
3F
01
02
39
04
04
06
06
01
34
3A
3B
35
39
07
37
07
3E
06
3A
07
05
06
3B
09
3A
06
04
3B
02
3D
3A
3F
0A
00
0A
08
05
02
36
06
06
00
03
04
01
3A
0B
3E
3E
3B
06
07
03
3E
39
0D
0A
0A
3F
04
39
02
0D
36
38
3A
37
3D
05
3F
05
00
37
3A
38
3D
05
02
03
01
38
3C
3A
01
05
3B
3D
3A
39
3C
3D
3A
3E
3F
02
04
3C
3F
3C
01
02
3C
03
08
3F
3E
36
01
08
09
3B
08
04
00
01
3E
0A
09
3E
3E
3F
04
02
39
3E
04
3D
08
01
06
01
3D
3E
39
01
03
05
06
05
3B
08
06
02
3D
3E
05
3C
04
04
3D
3A
00
3F
02
3F
06
06
00
3A
07
3B
06
3D
3A
04
01
00
3F
3A
3E
07
04
3C
02
3F
3B
3D
3B
01
3D
00
06
01
07
37
37
06
3E
00
00
3B
3B
08
3E
04
09
01
3E
04
00
3A
3D
3B
3D
05
3E
3F
3E
07
3C
04
00
03
06
02
3A
39
06
06
3E
02
02
03
06
05
3F
3E
04
3C
04
05
3D
3E
3C
01
3E
03
3D
02
04
06
3E
3F
3A
03
3E
3D
3E
39
04
39
3D
3E
3F
00
08
04
3A
3F
36
3E
01
3B
3C
3F
04
3E
01
02
38
3D
3D
3D
03
05
37
3B
09
05
39
3A
02
06
03
01
3D
3E
01
05
03
05
39
06
05
06
01
3B
3C
02
39
02
03
3A
00
04
03
3D
3D
3C
07
3E
3B
3B
07
3A
07
3B
04
3C
02
01
3E
01
05
3B
0A
3F
39
3A
02
05
3E
00
01
3D
06
3C
00
3E
03
02
37
02
00
3F
0A
3B
3C
3F
3E
02
03
03
3D
3D
03
3A
3E
04
3C
01
3E
01
05
06
3F
3D
3D
3A
3D
00
01
06
02
02
38
04
05
03
00
3E
01
03
06
3F
06
3E
39
00
06
3E
08
01
06
05
3E
00
3F
06
01
3B
08
03
3E
06
00
39
03
3D
05
04
3B
3F
3D
02
07
02
3F
3F
02
3D
03
39
39
3E
37
3C
3D
08
03
3E
09
3B
3F
00
3B
39
03
00
03
3E
3B
04
06
39
3E
3D
02
3D
3C
06
3F
01
01
09
04
3A
02
03
3D
3F
00
07
06
0D
0A
03
02
06
01
03
06
09
05
3F
06
3E
3B
3F
3F
00
06
3A
3D
3D
3E
03
01
3D
02
3D
3F
04
3A
3C
03
05
39
03
39
37
07
3F
3A
01
05
08
38
04
01
01
00
04
3B
00
06
03
01
0C
05
02
07
05
3C
37
04
03
3C
3C
03
3E
07
3C
3F
03
3E
3B
03
03
3D
3E
0C
00
36
06
0A
00
0B
07
08
02
06
3A
3E
0A
04
04
03
3F
3D
06
04
3E
0A
3E
06
07
3C
00
01
02
02
3F
03
03
3E
00
03
01
3D
39
39
07
04
3B
03
00
02
37
3A
01
04
08
08
3D
3B
01
04
00
03
06
03
3E
3E
3A
01
3C
38
06
0C
39
07
01
3C
3B
00
08
3B
06
04
08
07
08
02
02
03
3C
01
06
00
03
05
39
37
37
35
02
3A
04
06
3B
05
00
01
01
07
07
3C
3A
00
3A
37
3E
3B
3B
3E
3F
04
02
06
3E
3C
3B
01
3D
04
39
00
01
04
39
3C
3C
06
3E
08
3D
3C
3A
37
09
3D
39
03
02
07
03
06
3D
08
3B
06
04
09
38
37
3D
39
08
35
0C
3A
3C
02
3D
3D
3F
04
3C
39
3C
3C
39
3E
38
3D
3E
00
3A
06
3E
00
3C
3E
00
07
06
3D
34
04
3F
03
3E
3D
3D
03
08
3E
05
01
05
3F
02
38
00
05
01
02
3D
03
3E
37
02
3D
3E
3C
3C
36
3D
3E
00
3F
04
3A
05
3F
05
3F
37
00
37
36
3B
3E
38
39
3F
02
06
39
01
3C
3D
01
3E
3C
38
38
05
05
04
04
02
06
05
3F
3D
02
3B
06
3B
3B
3A
06
03
07
04
01
3F
3E
01
05
04
3F
3B
01
05
02
3A
3D
01
0A
06
02
31
02
37
3A
07
09
01
00
02
3F
06
05
3F
3F
3D
02
01
03
3B
01
03
00
3C
0A
05
08
08
36
0A
02
3F
08
04
03
05
3E
08
05
3E
3E
05
08
04
03
05
03
3E
03
3F
05
03
07
3F
04
07
36
05
3B
3F
3D
06
3A
04
3F
3B
02
3D
05
02
06
07
3F
05
05
03
06
04
01
3E
3A
38
04
39
00
05
01
06
3F
08
3D
04
04
3F
07
3F
04
3F
3F
3E
3E
02
3D
03
0C
3D
00
3F
3D
08
00
34
39
03
3A
02
3F
0E
06
3D
09
08
07
01
38
08
05
38
3C
3B
06
3F
07
04
08
3D
05
08
3D
3D
00
01
04
3C
3D
39
3D
02
06
08
03
04
3D
3C
07
3A
39
06
03
03
05
3E
3E
3F
3D
06
3B
3E
09
3A
39
05
3D
07
00
3B
06
3E
00
08
02
05
04
00
3D
37
03
3E
38
3B
3F
38
01
02
3A
3C
3A
02
3C
39
00
37
3C
03
03
3C
3B
3E
00
07
3E
01
39
02
3A
38
3A
3D
00
3E
3C
3B
3E
37
37
3C
37
3B
3E
3F
3C
3A
05
04
3F
38
3A
03
07
38
38
3D
04
3B
01
3C
39
03
3C
3A
39
00
01
03
3D
02
00
38
01
3E
01
05
39
3A
08
03
03
3E
39
04
01
3E
3C
00
05
08
3F
3F
3B
02
03
3B
02
02
3E
3A
3D
05
3B
3F
3B
3C
3B
04
06
38
38
03
02
3B
02
06
38
01
3D
03
3B
07
03
02
01
00
3E
00
38
3C
3F
38
39
06
08
39
02
3B
3B
02
38
3E
0B
35
3D
38
00
02
3B
38
01
3D
05
04
3C
01
02
3E
3F
00
3F
03
39
02
09
3C
3A
39
37
3A
3F
3F
3B
01
09
38
37
02
3B
00
01
3D
01
3F
3E
3E
07
3E
02
3A
08
3A
06
38
3D
06
3C
3C
04
35
04
0A
02
06
3C
3A
04
3F
3A
04
01
3E
3F
01
02
3C
04
07
02
02
3B
38
06
05
03
01
09
01
02
06
09
38
04
36
3A
00
05
3F
04
05
04
03
3E
3D
3D
05
05
04
3E
3C
3F
04
07
08
3D
00
04
05
09
03
00
3A
05
39
3A
02
04
3E
3D
39
09
04
39
3C
3F
03
02
03
00
36
3C
01
04
00
3D
3F
04
03
38
3E
3B
00
3E
3F
3B
3E
02
3F
3C
3B
3D
07
3F
00
39
3C
38
3A
3E
04
39
3D
3F
36
3B
3A
07
06
3A
06
05
05
01
05
02
01
05
00
3D
3A
03
3D
01
06
3B
3D
3D
01
3C
3A
05
04
01
37
03
03
36
02
3A
3C
38
02
01
00
3D
02
3F
09
05
37
02
3D
3C
03
04
3C
38
09
01
3D
3F
04
05
3F
3E
05
02
3A
3C
04
3E
06
3F
03
3E
01
38
39
00
07
07
3E
07
3F
06
05
3D
3A
00
3E
04
01
06
3E
06
3A
3F
3D
05
00
39
03
08
02
3B
00
04
06
07
01
03
09
3B
38
06
34
37
3C
07
3B
3D
3E
01
00
39
01
06
08
39
38
03
03
3E
02
3F
3E
03
04
04
00
39
07
3F
3E
04
3C
04
39
38
03
3C
07
04
3D
01
3D
3F
3A
37
03
04
03
05
00
08
07
3D
02
3A
3C
03
00
36
3E
39
01
07
3B
3B
3C
3C
02
06
3A
05
3D
08
3D
3A
3D
01
03
3F
36
3C
3E
05
09
3B
3D
02
3B
3A
3B
02
02
0B
05
01
00
03
04
3F
3D
01
02
09
3C
00
03
3B
01
01
01
00
3B
06
3B
02
07
3F
04
39
3B
06
03
3B
3E
3F
3F
3C
06
3B
06
3B
3E
06
3E
3A
38
3A
38
31
08
02
03
3F
02
3F
01
3A
3D
04
3E
06
37
01
3A
3C
05
39
03
07
3A
04
3D
00
3D
3F
00
01
3E
39
39
3B
01
01
3C
3F
3A
3F
3F
05
3B
3A
05
07
01
3B
39
3E
01
06
06
02
03
00
3C
08
02
3E
02
08
02
02
07
3D
01
3E
3B
3E
37
06
3E
3D
39
04
04
02
04
07
09
04
02
3A
02
00
09
3F
3F
00
01
02
01
01
0A
0B
09
00
3B
04
36
08
01
39
02
03
3D
3E
01
03
3F
02
06
04
3D
3E
3A
09
3C
3F
3F
3D
06
05
01
3E
03
3A
08
01
3B
06
01
3C
38
3C
3C
06
3A
39
03
05
01
05
0A
35
05
00
03
05
3B
03
03
04
05
08
04
00
06
00
04
01
3D
35
39
36
01
3F
03
3A
3D
0C
03
3A
0B
04
0E
01
01
07
07
02
3C
08
3C
03
3F
38
3C
3F
3B
3F
3B
05
06
04
09
3F
3B
01
00
3F
05
01
3E
00
05
08
00
39
00
3B
07
07
00
02
3F
3B
01
05
3B
3D
04
3A
02
3A
03
3B
00
07
04
3C
37
04
38
05
3A
07
3C
3B
3F
3E
01
3E
3B
38
09
3A
05
03
03
3E
04
3F
03
3D
00
3B
3B
02
01
3C
04
3F
39
3F
3F
3C
00
00
04
04
05
39
06
04
3B
3C
3C
3E
3F
39
03
02
3D
3C
02
3B
02
00
3B
3D
00
34
3A
3C
01
3E
3E
03
3C
08
3A
3D
02
38
3F
06
37
3D
3C
3A
04
3F
09
01
39
3F
03
3F
3F
3C
04
04
3E
01
04
39
01
04
01
3A
3D
04
01
3F
3E
39
06
3E
38
3A
05
3C
03
3D
05
09
07
3B
3D
3F
3A
3C
08
37
3A
3A
09
02
3F
39
09
07
3F
04
38
3A
39
3A
00
04
39
04
07
01
07
03
3C
00
03
08
00
3C
01
01
3C
37
02
3E
3E
02
3E
01
3D
3A
06
3C
39
05
02
02
39
3D
0C
00
3D
3E
3B
00
3A
3A
3A
00
3F
38
3A
00
01
3C
01
01
09
09
38
04
38
04
06
36
3F
06
3A
06
06
33
39
03
07
3F
04
07
3A
0C
3D
3B
3B
01
3D
07
3F
3E
3B
3D
3F
3D
3F
06
02
01
04
06
05
3A
39
08
3E
05
04
03
00
3F
3A
3B
38
3F
01
3D
3D
03
00
01
3B
3B
02
05
00
02
39
3D
3E
03
3D
3A
3B
08
3D
3F
3D
05
38
03
3B
3C
07
0A
3C
3F
05
37
09
3D
3B
05
04
3A
3C
02
07
07
08
03
3D
3F
08
36
04
02
07
3E
05
3A
3B
3D
06
3A
00
04
0B
3F
3D
00
3E
00
00
3F
3B
3F
04
37
3F
05
3C
06
3D
07
3B
3B
04
3B
02
3D
06
03
04
04
05
3C
00
3E
03
03
3B
3E
01
04
02
00
01
3E
38
3F
03
3B
00
07
05
06
05
04
07
04
06
01
3F
03
01
00
00
06
01
0B
05
03
08
03
09
02
07
0A
3F
3D
3F
02
3D
3A
04
07
01
05
04
3D
03
3A
3D
05
3E
02
01
02
00
3E
00
06
39
3F
04
3A
3A
01
3A
3F
06
36
3E
04
3E
06
3E
06
03
3D
02
07
3A
3D
37
04
01
3B
3E
06
3C
3B
05
35
39
02
3D
3F
03
3E
3D
3A
3C
00
06
39
03
04
05
3B
39
04
3E
36
01
01
03
08
02
04
39
3E
00
3B
05
01
3D
3E
06
3F
3B
3B
3E
02
3E
3D
3A
02
3F
05
01
06
09
03
3E
3E
04
06
00
39
3A
06
3C
04
3D
04
3C
00
03
01
3D
3C
01
37
36
39
3C
37
3E
06
3F
3F
38
3F
32
06
3D
39
3E
3C
03
3C
3D
01
3D
3A
0B
06
38
39
01
3D
3E
05
01
3D
01
3B
3E
02
39
09
04
3A
02
36
3F
07
3F
07
3E
04
02
03
06
09
02
06
07
3D
3B
03
00
3D
3F
08
3B
00
3B
01
3C
05
38
09
3A
3F
3B
3E
3E
3C
39
01
3A
3A
02
3A
3F
02
39
09
01
03
06
03
03
05
03
01
03
03
3D
04
08
3D
3C
3E
01
3B
3E
3F
3C
01
00
00
37
39
39
35
3A
09
3D
3F
3C
3F
3F
3A
03
3F
3C
3D
04
3D
39
01
00
0C
05
3E
01
02
3C
06
3A
00
07
04
00
07
04
11
3D
08
00
02
06
02
3D
3A
04
02
04
01
0A
07
04
10
04
3B
05
3D
03
3F
39
3D
3F
06
3E
00
3C
03
01
3B
3B
02
3F
3B
3E
36
05
3D
05
06
39
06
02
06
02
38
02
39
00
3D
00
38
36
06
00
38
38
00
07
3B
3B
03
39
03
3D
3C
04
3F
3C
38
35
3E
3A
3E
02
03
3C
05
07
3F
3B
3A
04
3B
38
04
08
02
07
03
07
0A
38
0B
3F
39
00
04
00
3D
05
03
07
3C
05
04
00
3E
3A
3E
06
07
39
04
01
00
3C
3A
09
00
02
3E
39
02
3A
03
3D
01
08
3F
02
04
3D
04
3E
3A
39
3E
3C
02
01
39
3B
3E
01
39
02
05
3E
3B
02
3F
00
3F
06
06
3B
3C
08
00
05
38
3D
3D
08
00
05
03
03
06
05
08
39
39
00
0C
3C
04
01
37
02
02
07
00
3E
0D
04
3C
3C
01
3A
08
3C
08
01
39
3C
3F
3B
3E
3D
3A
03
3B
3E
01
02
3D
3A
00
3B
02
00
04
03
02
05
38
3F
07
3F
07
3A
36
3F
38
3D
05
07
3F
01
3B
05
01
39
03
3A
02
3E
03
08
3A
03
03
00
03
3E
00
00
3E
3B
39
34
39
00
3F
3C
03
37
03
35
3F
06
37
3A
00
03
3C
00
3E
3E
09
37
05
02
01
00
36
00
04
39
3D
02
39
39
04
02
00
3F
07
3E
05
04
3E
3F
02
04
38
00
04
04
0B
00
35
37
3B
04
3D
07
06
08
3E
3A
3F
03
3B
02
03
07
03
3B
3B
01
02
3A
3B
3E
02
3F
08
3F
39
3E
38
02
39
04
3A
03
08
37
02
37
01
01
01
01
01
06
00
3A
3E
09
3B
03
3B
37
3B
00
00
3D
3C
3A
03
3D
05
06
3A
3F
05
01
02
3B
33
3B
08
3A
3C
3E
3E
3E
08
3E
3C
3E
05
3A
01
02
3F
3F
3F
3E
3C
02
00
39
02
3C
3B
00
07
02
01
00
03
02
3E
09
05
04
03
37
09
3C
3E
3B
3A
07
02
04
02
09
3E
3E
3F
3D
06
06
08
03
06
02
3C
01
04
3D
01
0C
3A
01
3E
04
03
37
00
03
05
01
34
01
3D
00
3D
0A
3E
03
07
3C
05
00
01
00
0C
3E
3E
3C
3E
03
37
3F
00
03
0B
01
01
04
02
0A
07
03
00
3E
3E
3E
00
07
03
03
01
06
3D
3C
03
07
07
3C
39
07
3A
03
06
00
02
04
01
03
03
03
03
3E
39
3F
38
08
04
04
06
3D
37
04
07
3C
3B
39
3E
3D
3E
00
3F
08
3B
00
3B
3E
39
38
04
01
38
03
39
3D
02
02
3C
07
04
3B
36
3C
3E
02
3C
01
07
3A
08
3C
06
0B
3D
07
0A
3F
01
07
07
3A
05
02
0A
00
06
02
09
3A
02
05
00
00
06
3E
3D
39
05
02
3B
01
3F
3A
04
37
3F
03
3F
09
3B
04
3B
3C
3A
06
04
05
01
3E
39
01
39
3B
00
06
3F
00
37
02
04
3F
39
3F
01
3F
06
06
3D
07
01
03
39
3F
04
3A
05
04
00
3D
00
3B
08
3B
37
39
01
3F
03
07
02
00
07
05
01
36
3B
05
3C
3A
3F
0B
39
03
3B
3D
05
04
0C
3F
05
04
3D
03
08
3B
05
05
06
3B
3F
3A
3A
38
3C
00
38
3F
00
04
39
01
00
3E
3A
3D
3D
3D
00
05
06
3E
3E
3E
3B
04
3B
05
01
04
00
3F
3E
05
03
04
07
39
3A
01
35
01
38
37
00
3E
05
05
03
06
06
03
3F
00
3C
00
05
02
3D
03
07
07
39
07
03
3D
06
03
03
3C
01
39
03
3D
3C
3D
3E
03
03
08
07
07
3C
07
3E
38
06
36
3A
06
01
38
3F
3A
01
04
07
08
38
02
3E
06
05
3C
00
3B
08
3D
3F
3A
04
01
3E
3F
06
04
3F
3F
3E
04
3C
3C
00
3D
06
3B
3C
05
3B
04
02
07
09
08
3E
3E
06
01
3D
37
3F
0B
3E
3D
03
3E
06
06
3F
3B
04
01
0B
00
3A
39
06
0E
3C
08
3F
07
3D
07
3F
3E
3E
3A
3D
02
3F
02
3D
01
38
06
04
06
3B
3F
02
03
3D
3D
3A
02
3E
3B
04
06
3A
00
3C
04
3D
3C
3D
3E
06
3D
38
3C
09
38
01
3F
3B
3C
03
3D
03
02
08
0B
09
0A
08
00
00
34
02
03
37
3E
07
3F
39
02
03
3C
3E
03
3F
06
04
3C
05
06
3B
06
3B
3C
05
3A
04
3A
00
00
3C
3C
3D
02
01
3B
03
3F
39
04
3E
03
00
02
3A
39
3B
03
08
02
3E
00
3B
02
3C
3F
03
3F
3F
04
03
3F
3C
05
37
3B
07
05
3B
3A
3E
3B
03
05
05
03
04
3D
06
08
0A
39
3E
03
02
39
34
3E
3C
3F
07
05
3F
3D
3E
01
07
02
3F
3F
3D
02
3E
03
3F
05
08
01
39
3F
01
00
05
00
00
02
37
39
38
3C
3C
02
00
37
39
00
05
05
3F
3C
0A
02
3E
01
01
0A
03
3F
00
00
3B
00
3F
07
3E
3D
02
08
3E
02
00
06
02
05
01
03
3A
3F
07
3A
02
38
07
33
35
39
3E
03
3F
37
02
07
3B
05
07
00
07
3D
3C
3A
3D
3B
03
00
05
04
3B
01
07
3E
03
00
3C
3C
3F
3E
00
3B
02
06
01
03
3B
02
39
3D
02
00
06
3C
02
04
3B
36
3B
01
09
39
37
3C
00
3B
3C
3D
3B
3D
36
04
38
38
03
3D
3A
02
3E
02
3D
06
3F
3D
38
01
3F
3D
05
05
3C
02
3E
39
3B
00
00
3B
04
39
3C
3F
37
3F
3D
3D
3A
05
3D
37
07
37
04
39
3B
3F
04
01
02
01
03
04
00
3D
01
3F
06
02
04
08
3E
08
3B
00
3C
39
3B
02
37
05
02
3D
03
3E
01
3C
09
3E
3D
3B
05
00
39
00
03
3E
01
08
09
08
07
3E
06
3D
06
3E
03
3E
3C
07
3A
03
3E
3C
01
3D
03
00
03
05
05
39
06
35
04
01
3E
3F
3E
3E
01
39
3E
07
3C
03
04
3C
3A
37
04
3E
3D
00
03
38
03
02
3F
03
3A
3F
04
3C
03
00
07
3E
3A
0A
03
06
01
3C
09
3C
3F
05
02
00
01
00
03
05
39
0D
01
05
3E
03
3F
02
00
3D
3F
02
00
3C
07
3C
3A
03
3E
3B
3E
3E
3D
07
3F
06
00
06
3B
3B
3E
3C
02
3E
3A
39
38
05
00
02
3B
06
03
3C
04
3E
00
39
01
04
03
39
00
3B
3A
07
04
3D
00
03
3E
3A
01
03
3A
3F
03
3B
00
3A
3B
02
39
3A
03
01
00
3B
01
01
01
03
07
05
3D
07
3B
06
01
01
3B
38
02
02
02
3A
3A
3D
05
3C
3A
05
00
03
03
05
3A
39
38
3F
3A
00
3D
01
05
3E
3D
03
39
08
3E
07
3B
00
3E
38
05
03
02
03
08
04
03
05
3E
3F
00
01
09
37
05
3A
00
3A
37
04
01
3F
06
05
3D
06
3C
04
3D
3C
04
03
3C
04
00
3C
39
3A
02
09
3E
0A
03
3D
01
3D
05
3D
37
3F
07
3A
3D
01
3D
38
3D
03
03
3F
3A
03
3E
39
3F
03
3A
3E
3A
05
3B
02
05
05
3D
3F
01
02
36
01
04
03
09
3F
3A
03
38
00
02
02
39
3E
00
01
30
05
3A
01
3A
00
07
3D
04
05
3F
05
36
00
05
00
36
03
3A
03
3D
01
03
3A
3F
3D
01
09
3D
05
3A
01
00
03
04
3E
37
02
02
3E
3D
04
3D
3B
3E
3E
3D
03
04
04
3A
0A
03
07
03
05
3A
38
00
3D
39
3E
3E
3D
02
3C
3E
03
01
3A
3E
3E
3C
05
01
3E
05
3B
02
3E
05
3B
3E
38
3A
3E
03
3C
3E
0A
3F
0A
01
02
37
3E
09
07
08
3C
07
3C
38
02
37
02
05
02
0B
3A
3F
37
3B
06
37
00
01
3D
01
02
3F
00
03
3F
07
38
3C
02
03
3C
05
3D
02
3F
3F
3C
00
02
05
03
03
02
3F
3A
3C
00
3F
02
3F
05
39
3E
3C
00
3C
3E
07
3A
3D
3E
3F
38
3E
03
37
03
06
04
3C
06
07
07
07
01
06
36
3F
05
02
00
3D
06
3E
3D
04
07
04
02
07
3C
03
3E
3A
0A
3D
05
09
33
02
00
3D
00
3E
3B
3A
3A
3A
3E
35
08
3F
3E
03
03
3A
3D
01
3E
05
00
38
3F
03
03
39
3D
01
3F
3E
3D
36
38
00
39
02
3B
00
02
3F
3C
3E
02
3A
3C
00
3C
07
38
3F
3F
05
3F
3E
3C
03
34
05
01
02
01
00
07
3B
3C
05
3F
04
00
08
39
36
3C
03
03
08
3C
09
37
3F
3E
3E
06
01
06
03
02
36
02
3B
06
3C
02
05
00
3C
00
3F
3C
03
3D
38
3F
05
3A
37
06
06
05
08
08
04
06
02
04
3B
00
03
00
01
01
05
3E
3A
05
3A
01
06
03
3F
3C
03
06
03
3B
07
06
3F
06
3C
00
3A
07
05
3C
00
39
02
3F
05
00
05
08
00
3F
3D
04
04
3A
3C
06
3D
3B
06
3F
3C
3A
3E
06
00
03
01
05
0B
05
3E
0A
3B
02
3C
3D
3A
3B
00
00
39
02
02
0B
0B
3D
3E
00
01
05
38
3F
32
3F
3A
09
34
39
04
02
3D
3B
3E
00
02
04
06
04
3F
3D
02
06
35
3D
3C
02
05
03
3D
3C
01
04
05
02
38
3C
2D
05
39
09
05
3A
04
38
00
00
35
3D
02
3F
3A
3E
36
3D
37
02
01
37
01
05
00
3B
39
3B
3E
01
05
39
3C
38
00
05
37
00
3D
38
04
02
3D
06
05
03
08
01
3B
3B
05
01
06
3E
3D
37
38
03
00
3F
08
04
02
37
36
3D
3D
04
08
39
3E
30
02
05
3F
01
3E
3D
07
03
05
3F
03
05
39
03
3F
0F
3D
3B
09
01
05
01
05
03
04
3A
05
02
06
05
00
04
01
3B
05
3F
07
02
3D
04
39
3F
01
3C
3A
3B
03
3D
03
3E
3F
00
3E
01
3C
00
05
05
3B
04
07
37
3E
38
04
3D
38
05
00
3E
03
06
34
3C
3F
00
3D
01
3A
04
00
05
3E
0E
01
00
05
39
05
0B
3F
03
04
3E
3B
3C
3B
3D
36
01
04
3E
3E
3E
04
02
3D
39
00
35
06
03
01
02
03
06
3C
09
03
3C
01
04
06
04
04
03
3F
03
01
06
05
38
3A
03
3E
00
3C
05
38
00
02
3F
00
3D
01
3C
08
3D
00
38
3B
05
3F
01
3B
04
03
05
00
0B
00
3A
3B
0B
06
03
00
3C
00
08
04
3A
3D
3A
03
01
3F
00
39
3C
07
3D
3E
3D
05
05
00
05
3C
3E
04
00
09
00
09
02
01
06
06
02
3A
38
3A
00
3D
00
3E
3F
3E
3F
3E
07
06
3D
3E
07
3B
3F
3B
04
39
08
00
3F
02
02
3D
3C
3C
07
09
00
3E
3E
03
3B
00
04
04
05
01
04
04
07
01
05
03
06
04
36
0D
3A
03
3D
05
06
02
04
08
3A
04
3E
3F
02
09
3F
05
3E
02
3F
05
02
3D
03
04
02
03
06
06
07
05
07
3E
01
3D
00
03
3C
3D
08
00
3B
01
08
05
3B
06
3D
3A
04
3E
3F
3E
38
04
3B
06
3E
05
05
3E
3A
07
08
01
3F
3F
02
03
06
01
3D
3F
03
04
00
09
06
04
36
3D
09
3D
07
3B
02
3D
05
07
00
3D
3B
00
09
01
3F
3B
05
3A
05
07
3F
3A
05
3D
3F
03
3C
37
00
38
3C
02
02
3A
3C
00
3D
3A
05
03
3C
3C
3A
3D
05
03
39
3D
3E
3A
00
3A
3F
3F
3B
37
07
3A
3D
05
3E
00
00
3D
05
06
39
00
3C
02
04
3E
3C
03
03
00
05
3D
05
3D
07
03
03
02
39
08
03
33
02
05
06
3D
05
3A
3D
39
3F
03
06
03
01
3D
00
37
3B
39
02
3C
39
3E
00
3F
3D
03
00
3E
3C
38
3E
3C
05
3F
3A
01
00
00
3D
38
05
3E
38
01
3C
05
03
00
02
05
07
04
02
34
3F
3B
3A
05
3C
00
04
3A
02
02
3F
06
07
02
00
3E
3F
0B
02
04
07
04
05
3E
3E
05
3F
07
3C
3F
3B
02
3E
02
3C
05
3D
03
02
3F
00
02
38
05
3D
00
3A
04
3E
3A
3A
04
06
00
05
01
3C
3F
3B
01
00
02
03
07
00
3D
3C
00
04
39
08
3A
3D
01
02
3A
35
01
3A
3C
04
02
03
07
03
3F
3F
02
3A
05
3B
08
3A
04
03
03
35
09
01
35
01
3D
3A
05
38
00
04
3E
00
08
3A
05
3C
3E
05
3B
02
03
05
01
02
3A
04
07
07
0A
02
01
07
00
3F
02
01
05
3A
02
3D
3B
39
3B
04
38
04
04
01
3A
3D
05
03
3B
02
02
02
07
3B
01
02
34
3E
3E
01
02
04
00
39
03
3D
03
02
09
38
3D
01
3A
01
3D
01
3F
3A
05
3A
3E
3A
01
01
34
08
02
05
02
04
3B
02
33
0A
04
03
00
3F
00
02
39
03
0D
0D
03
01
3E
04
02
02
01
3F
01
3D
01
04
00
04
3C
08
3E
05
3E
04
3C
3A
3F
04
39
01
39
3D
03
3B
3E
02
38
03
02
03
3E
04
38
06
37
03
38
01
3C
37
3A
3D
38
3F
3D
04
38
01
3D
04
03
3D
3F
04
3B
3E
04
04
3D
05
3E
36
3D
3D
02
0B
3B
3F
00
39
3B
3D
01
05
3C
3B
3C
04
00
05
3F
06
3C
02
3A
3F
06
07
00
3F
00
3E
03
03
3F
3D
04
3B
01
01
3F
3A
36
00
05
06
0C
3A
37
03
3C
3B
03
36
3B
09
3D
05
3A
05
03
3A
03
3F
04
01
01
05
00
3B
3D
3B
3D
3A
3B
03
3D
00
3F
03
00
3C
3D
02
02
09
03
04
01
01
3D
01
00
07
00
38
3B
0A
05
06
04
01
3C
3C
06
37
01
05
02
06
3C
02
39
06
03
36
3D
39
36
03
00
38
02
3C
08
3E
3E
3B
3E
3C
3D
01
3C
3E
3D
01
07
3E
3D
01
3E
3A
00
3F
3F
02
3F
04
3D
00
3F
00
3E
3F
01
00
38
3F
3C
00
06
00
06
3A
02
02
01
04
01
02
05
3D
3E
3B
3D
39
38
00
3E
3B
05
02
3D
08
04
02
3D
06
00
3A
3D
3A
3D
3E
3D
01
3C
02
04
02
03
3C
03
39
05
00
35
04
3E
0A
34
3A
04
3B
02
07
03
3B
00
02
3A
37
3B
3C
39
0C
3E
3F
02
3F
00
3F
3C
03
3E
3D
3D
00
06
02
37
00
09
03
06
3E
04
02
3B
03
3F
39
04
06
3C
03
3C
3D
3F
3D
02
05
3D
06
02
04
3C
03
3E
02
3F
04
3A
02
3C
04
01
05
05
05
39
03
03
33
3F
38
32
01
02
03
01
3D
3E
3C
36
08
01
37
02
38
01
00
39
00
0A
06
05
3E
04
02
3B
07
04
05
04
3D
08
3C
06
04
07
05
0D
06
01
03
3E
3C
3E
3C
04
3D
06
06
0B
02
3E
05
05
37
07
3C
07
3C
03
09
3D
3E
07
06
02
03
3D
09
06
3A
3F
06
05
08
00
09
3D
3D
3B
3F
3B
39
00
06
07
3E
07
01
0A
3C
3D
05
04
01
3B
07
3D
04
3C
3F
3A
3C
00
02
06
3A
0B
02
03
3A
02
03
3C
02
04
02
3F
3D
39
07
37
3C
3C
07
04
36
06
03
3B
3D
3B
3C
3B
3F
02
03
01
04
3E
02
01
3A
00
3F
3E
02
03
02
04
00
3F
3C
3D
01
05
01
3B
3C
3F
07
0A
3B
3F
3E
3C
07
07
00
0B
3A
3D
04
00
09
05
3B
01
09
3D
3B
3E
01
06
05
3F
07
3A
07
00
39
06
07
3E
00
0A
3C
3D
3A
00
06
05
02
3B
04
0B
09
06
05
3B
01
01
07
3C
04
3E
00
00
3C
00
07
3D
05
00
06
3F
01
06
03
05
03
05
3C
3A
03
3E
3C
03
06
09
08
3E
3E
39
07
02
01
3F
3A
3A
38
0A
01
05
09
0E
01
04
06
05
3D
00
3A
3E
04
3B
00
3F
03
3D
3C
04
3F
01
03
3F
01
3B
01
02
08
08
3A
3E
3C
3F
3F
02
39
04
02
3E
08
01
3E
04
01
01
3A
3C
39
08
01
3E
02
01
00
3D
08
3E
03
08
05
00
04
05
03
04
3F
04
39
3C
03
05
00
34
01
3C
00
3D
09
07
3E
04
3B
05
36
05
05
03
3C
02
00
3B
04
02
05
03
3E
3F
3F
3B
3B
06
3A
3E
3E
03
3E
3E
3F
3A
07
3A
39
02
05
3E
3B
00
04
03
3A
03
39
3B
3D
05
08
04
3B
04
3A
3A
01
00
3B
3B
38
38
04
39
09
38
04
3C
02
05
38
3E
37
04
08
3A
00
34
3E
3D
3F
00
0B
3B
39
09
33
02
3B
01
04
0A
3E
0B
37
35
36
34
04
37
38
0C
02
3B
3B
04
3D
07
3C
0B
02
01
04
3E
3B
06
3F
39
01
3E
08
00
01
3E
3D
35
00
3B
02
39
3B
02
3E
04
3B
04
07
3F
05
36
3D
3D
3C
3E
00
3D
36
3E
38
3E
04
06
3E
03
3F
03
38
3A
02
38
3C
03
01
00
39
05
37
3A
3B
3C
3A
02
01
3D
3E
3F
39
06
09
05
3C
03
05
02
04
00
3B
39
0A
01
35
3B
3A
3F
03
3B
3C
04
39
3F
01
05
3A
3F
3A
36
37
00
39
02
07
01
01
04
00
3A
02
36
01
39
3B
37
02
05
02
01
00
03
3F
00
38
35
39
35
06
0A
04
3F
00
3A
01
3E
03
3A
00
07
37
39
3F
2F
39
02
3B
05
3F
3F
07
02
0C
02
3E
08
05
01
3E
3A
3A
0B
09
02
38
3C
03
03
00
02
3B
3A
3F
3F
0B
3A
05
00
3D
09
3B
03
3C
3E
02
3D
08
3C
00
01
05
38
3B
05
04
3F
39
08
3F
3F
02
3E
06
38
33
34
01
39
36
03
0A
3D
01
0B
04
3E
37
3C
3F
37
3B
35
3F
33
3E
02
3A
03
3E
39
3E
02
08
3C
03
04
38
04
01
39
3D
3D
01
04
00
06
3A
3A
39
02
00
02
03
3E
3F
39
06
06
3B
01
3C
3E
37
3D
02
3F
07
03
3A
3E
03
3D
3D
06
01
3E
3B
02
01
3F
08
00
3F
05
04
03
03
3F
01
03
06
01
00
06
3D
05
07
04
03
01
3D
03
07
36
00
3B
3E
02
3F
03
04
04
3B
3B
01
3F
01
01
04
3F
3F
3E
08
03
3A
04
02
01
01
06
01
3A
3C
07
3B
39
3F
3A
3C
01
3F
02
3C
3B
3D
3F
3F
03
3B
01
3F
39
3C
06
07
00
34
02
01
02
3A
03
04
09
02
01
39
39
02
08
3D
02
3C
05
0A
02
05
3D
05
04
3F
02
03
00
3B
09
02
03
3D
00
3F
3D
3E
01
05
3C
05
02
05
3E
05
3F
3E
08
3A
02
05
08
3F
07
06
3E
04
3D
3A
3D
3A
07
00
02
3B
03
0A
3D
04
39
3A
0D
02
3C
3D
02
3C
0A
3E
08
39
01
3D
04
01
00
39
0A
39
3A
06
03
06
02
3F
39
04
3C
3F
03
03
03
08
3D
39
02
00
31
04
3B
02
05
05
04
3A
03
00
03
03
39
3F
3B
05
3C
3F
3E
3F
07
00
3E
00
3C
00
3A
3A
3A
3E
01
3E
3A
3A
00
03
3F
05
06
05
3C
3B
03
3A
37
3D
07
05
3C
3A
38
3B
3C
3C
3D
3B
06
03
06
3E
03
3C
00
3A
04
04
36
37
3E
3E
3B
39
3B
03
06
01
00
3C
09
3F
3A
06
3D
3C
08
06
02
3B
3F
04
05
00
39
02
04
06
00
06
06
07
05
02
04
38
04
01
3D
39
3E
02
03
3E
3A
08
3C
36
03
3E
00
3A
3B
06
3F
07
05
01
3E
02
09
07
02
3F
01
3B
39
3A
04
09
3D
02
0A
00
3C
36
3B
02
05
09
3C
3E
3D
04
03
3D
05
00
01
00
03
3E
3E
04
05
3D
03
00
38
01
3C
0E
3A
05
0F
39
00
3C
0A
00
06
32
09
3D
3A
09
06
03
3C
3B
07
39
36
35
01
3D
3D
3B
02
3E
39
02
3F
03
3E
3D
00
3E
04
03
39
3A
0A
09
37
37
07
00
02
07
3C
03
03
0A
01
02
3C
3F
04
3B
3A
03
3F
3D
3D
01
00
04
01
3F
05
3E
01
05
06
01
3F
01
3A
01
01
04
02
06
01
04
01
04
3C
38
3C
03
3D
3C
3E
3E
07
02
3A
3A
3B
3F
03
03
01
00
38
09
04
3F
02
3C
08
02
3B
05
02
02
01
04
36
3C
36
00
06
3D
3D
3D
07
01
3A
02
3F
36
3F
3B
35
03
3E
02
03
3B
02
03
01
07
01
3B
0A
00
04
3A
38
3E
07
04
07
39
3E
3C
00
05
3E
01
02
01
3F
0D
00
00
01
05
3F
00
3E
3C
05
3D
3D
3C
3C
05
3A
3E
3C
3C
01
04
07
39
3C
36
3F
07
3C
3B
07
05
3D
3A
04
05
3C
3E
00
3E
3B
02
05
00
03
3E
02
04
04
05
0A
04
01
3D
09
06
08
07
08
3A
00
04
04
02
01
3B
06
3F
01
00
02
03
3D
01
3D
00
3E
02
01
3D
04
06
3B
3D
00
03
3C
02
03
02
38
08
07
3A
3E
3D
3D
3B
01
3D
04
05
05
00
3B
3C
02
08
3F
39
09
3C
07
02
3B
00
08
39
07
01
3D
08
03
09
07
00
09
05
3F
04
3C
3C
01
3F
00
03
0A
05
04
04
38
3E
08
00
01
02
07
3F
3D
02
00
3F
3C
3D
01
3A
04
3D
08
01
39
02
05
00
01
03
01
34
05
05
39
03
3B
3C
3D
39
00
39
3A
3B
3C
01
0A
36
3F
04
01
06
3D
38
07
04
3A
06
3C
06
3D
04
3F
01
3D
06
03
3A
01
3B
3D
05
09
08
3E
05
3C
0C
01
06
0C
04
09
37
3E
3F
3A
05
3F
07
07
3C
05
02
3B
3F
01
3D
00
3C
3D
3B
3D
3F
39
37
38
39
07
02
03
38
39
3E
3E
3C
01
3F
38
3C
00
39
3F
38
01
05
06
3F
00
04
04
01
3C
3E
02
03
3C
00
3B
04
01
3D
06
3F
3E
06
39
3E
0A
01
38
06
04
3F
3F
03
03
3E
05
01
06
00
02
3E
02
04
02
01
08
3A
02
03
39
06
3B
39
03
3B
06
39
03
3B
07
3C
01
07
3F
39
02
00
39
3D
07
3C
39
3A
3B
3C
3F
3E
39
39
3A
05
3E
07
05
38
08
36
3C
3A
00
04
03
39
08
37
00
08
3B
3C
3D
06
3B
06
06
3E
02
05
3F
03
06
3B
36
06
01
06
3E
3A
3E
3D
04
03
02
3A
03
3D
07
3A
39
04
3E
3F
05
3A
00
3F
01
3F
3D
3A
00
3F
3D
06
3F
03
00
3E
01
38
3B
3E
01
3E
3C
38
0A
3A
3E
03
3C
06
3D
3D
3A
06
3F
31
3A
05
01
02
03
38
06
39
04
3B
37
38
0A
3F
3A
3C
05
04
03
03
00
3B
04
39
03
3F
0B
05
0F
04
3B
3A
04
3D
3C
3C
3F
3E
3A
3C
38
00
3B
3D
3E
3F
02
39
00
38
03
06
01
3D
02
3C
00
3C
3A
05
3C
3E
3A
02
00
38
01
3F
04
03
00
04
3E
06
05
04
02
04
3E
3A
02
03
03
05
3C
03
05
01
05
02
3F
3E
00
36
37
39
37
3F
3F
3B
02
02
04
3F
07
3B
00
00
3F
3E
03
02
3F
36
3A
3E
38
3D
3F
3D
3C
04
3D
01
3C
04
3C
3A
3C
37
3E
3D
3D
02
3E
03
04
00
3F
06
02
3F
01
3C
02
3A
01
3C
3E
00
06
3D
02
01
39
02
3C
3E
03
05
3D
3B
02
06
3E
04
3B
39
3E
00
02
05
3B
3B
08
3F
3E
01
06
3C
3B
06
3F
3E
03
00
34
06
3D
07
00
04
04
3B
3E
3C
01
06
08
04
06
03
00
03
01
01
06
03
05
34
07
07
38
00
02
3F
39
3B
35
3F
3F
3D
3E
39
02
3D
3E
3F
38
3A
05
36
37
06
3F
01
3C
08
00
04
3B
0A
3E
3D
01
03
3B
03
09
3C
02
39
01
06
00
05
04
00
3D
3B
09
01
01
06
08
05
03
39
01
3F
02
3F
37
03
0A
3D
07
07
3E
06
05
09
01
39
02
3E
38
3A
02
3B
03
08
3F
3A
04
3F
08
3D
38
32
00
0B
38
05
02
02
01
00
3E
37
3B
3B
3D
05
04
3F
3C
06
38
3E
00
0A
3A
00
3D
02
3F
07
06
3A
08
3F
3E
3B
36
03
01
3C
00
03
05
02
00
04
09
03
08
3E
3B
3F
04
00
01
04
00
3F
3F
3E
02
01
3F
08
03
3E
3C
05
3A
00
3B
06
3E
3A
00
3F
3D
02
03
3D
05
3F
07
03
01
05
02
04
03
05
01
02
3F
06
03
3D
04
3D
39
3D
04
08
3E
3D
01
39
3C
3C
3B
0A
3C
3C
3A
03
35
00
05
01
02
06
3E
05
3B
01
3F
03
3E
3B
3E
35
39
04
39
3E
3D
3C
03
3E
04
3C
3D
37
00
3E
00
09
3F
01
05
3A
3A
09
03
3A
03
06
3D
03
39
04
09
00
06
3C
01
3F
00
07
03
3A
3D
02
02
04
3E
03
3F
01
01
02
0B
05
3B
3E
01
04
3F
3D
3A
09
37
08
07
02
00
3E
00
3D
02
04
07
05
07
04
3F
3F
3E
02
06
35
3F
01
36
02
39
02
3F
3C
0E
04
02
3A
3E
3E
03
3B
34
36
3B
3E
02
02
39
02
3D
3D
05
04
3C
3C
3F
06
3F
08
3F
03
3A
3E
3D
37
3C
00
3E
01
04
04
3D
3E
02
3A
00
04
03
07
3D
3C
07
04
3D
3A
04
05
05
3D
08
00
3D
3D
01
3E
06
00
02
3D
3D
06
3C
3A
01
3A
05
3C
04
06
08
03
06
05
3F
3B
02
3E
04
3B
37
07
03
04
00
01
3B
00
01
02
39
05
3F
3C
39
3D
01
07
02
3F
3B
3E
3F
04
39
05
3C
05
3F
3B
07
3A
3B
02
38
3A
3E
04
3F
3C
06
39
03
05
39
3B
39
01
3F
05
36
03
3A
00
05
04
03
02
3B
0A
06
04
04
3C
3C
37
3A
08
3A
06
3D
00
39
05
02
3B
3D
3A
04
3D
03
00
04
01
3D
01
3C
03
3D
04
02
01
3D
39
04
06
3C
3F
3D
04
3F
38
3C
3E
05
00
00
00
3D
06
0C
3E
38
39
00
06
39
3B
3F
01
3C
08
00
01
00
3B
02
3D
39
06
3A
07
02
06
01
3C
3D
3A
3E
3B
02
3B
01
3F
3B
03
07
02
06
05
3F
3C
3A
3D
36
37
3B
39
03
08
02
35
3F
37
3B
38
3F
02
3D
3E
3D
03
3A
3B
05
06
03
01
07
03
3C
3E
00
3D
3F
3E
01
06
3B
02
05
06
00
38
00
02
3A
3A
01
3D
39
00
01
3C
3F
3E
03
00
3D
3D
3F
03
3F
01
3A
02
3F
02
05
06
03
08
0B
05
00
3F
03
06
3B
3B
08
3B
04
04
3F
03
00
01
01
01
39
3B
04
39
01
3C
03
05
02
3E
08
3F
3F
3F
02
3F
3B
39
39
3D
39
3F
39
04
04
00
03
02
04
04
3A
01
08
3D
3C
04
03
03
38
01
3C
39
04
3C
00
07
06
00
3F
03
37
3B
02
3E
3F
03
3E
3F
09
01
04
07
3D
03
01
3B
3D
39
3F
04
01
3E
39
3B
09
06
3F
04
3A
07
01
33
04
39
3A
05
39
03
05
3D
0A
03
04
3C
3C
07
02
00
3A
03
00
01
07
0A
01
00
08
3C
3A
04
05
05
05
3E
3D
3F
3A
04
3F
01
01
3F
3D
3A
00
3D
04
38
3D
3F
01
04
3F
05
04
02
39
02
3A
3E
3E
00
01
39
00
08
04
06
3B
02
02
3F
38
04
3E
03
39
05
3C
08
03
37
07
3C
3A
00
3F
3D
39
3B
02
04
3C
3E
3F
04
05
00
05
3D
3C
3F
05
05
3F
03
05
05
05
04
0A
39
02
04
3B
3A
3C
38
3F
3D
08
06
3E
07
3E
03
03
07
03
3D
3D
06
3B
39
05
06
05
3B
3C
3D
00
04
3D
02
3D
04
3A
05
38
3B
3C
03
3F
02
01
04
3E
04
03
3F
00
01
01
39
00
3E
04
3E
3E
36
3F
3B
37
03
06
04
03
3E
39
3A
04
03
04
02
3E
03
00
09
3B
01
08
3D
01
00
38
05
01
01
01
04
05
04
39
09
3B
00
08
3B
00
01
03
00
01
04
01
3E
02
39
06
07
04
3D
05
3E
07
34
00
00
3B
39
3A
02
3B
04
38
3D
04
01
3A
35
3E
3C
07
3B
3A
3E
3D
00
35
3D
06
3A
3E
07
3C
36
03
3E
01
3C
3D
00
3F
3C
05
3A
36
05
00
05
3D
02
02
03
01
3C
06
01
02
3C
01
01
3E
3F
39
09
02
3C
01
3B
31
0A
00
05
03
04
3F
3B
3D
00
3B
06
06
3C
38
33
33
3E
34
02
3E
04
04
36
3D
03
3B
02
04
02
08
01
01
01
3C
00
3D
06
00
37
05
3A
00
3D
38
39
09
0A
02
01
3D
3F
37
02
3A
03
3A
3D
04
3F
01
3E
03
39
3C
36
04
37
3E
3D
04
06
02
06
3F
05
3B
08
05
38
02
0B
3A
01
00
3A
3C
3E
00
03
39
38
01
3A
3F
00
05
04
01
06
00
06
36
04
03
37
39
3B
3F
01
3B
3F
06
37
3A
3D
3F
3F
36
3B
09
3E
03
3F
3C
3A
08
02
05
3D
3D
3E
01
01
03
39
3E
3B
00
3D
08
3C
02
3A
08
3A
39
37
01
3C
3F
3B
3F
3F
06
3F
3C
3D
3E
3A
39
3E
39
07
05
04
38
03
06
04
37
02
3C
3E
01
3E
3F
00
3F
39
3F
35
01
05
00
38
38
02
06
38
02
3A
3C
37
37
3B
02
00
3F
37
3E
03
00
02
3A
02
3D
3A
3C
3E
3A
3F
39
00
3C
03
3B
3E
3D
02
3C
05
3F
00
05
35
3A
3F
02
3D
02
05
01
3A
01
04
3F
3D
01
03
02
07
39
3E
3F
3E
00
3C
00
04
3F
3F
08
00
3D
03
01
06
39
3C
00
39
3F
03
3A
02
3E
01
00
3E
3F
06
3B
3E
3E
04
3E
03
04
3B
06
04
38
3C
38
3E
3B
3A
04
39
3B
02
04
3B
01
3D
05
05
01
3F
05
38
01
39
04
38
04
39
3D
02
05
3E
3F
05
00
06
03
3A
05
02
04
02
04
3F
05
3B
3D
00
3D
07
06
3F
04
06
3A
04
04
03
03
3F
00
05
3C
3E
01
03
3F
06
09
38
3F
05
3C
3D
03
04
00
01
3E
3E
37
37
3E
37
02
01
06
08
00
08
3F
3E
07
39
36
05
07
00
3E
3B
05
38
06
3B
39
3D
09
01
3F
37
38
03
3B
3E
05
08
3A
39
3E
06
3C
04
02
01
3E
00
3D
3A
3C
02
07
0A
3A
06
3F
05
3D
3E
08
3B
02
00
3E
04
05
0C
06
03
3C
01
00
3C
3B
00
05
01
00
36
01
04
3A
00
3B
00
05
00
05
3D
3C
07
3D
07
39
02
3B
39
00
07
3F
3E
01
07
05
3C
01
04
3C
08
00
39
07
3B
3B
02
03
00
3F
00
00
3D
01
04
00
3F
06
3C
3D
07
3E
3B
37
38
06
00
3B
3F
39
3A
3E
08
3B
05
3F
3D
3D
03
3A
3F
05
3E
03
3F
3C
04
05
3D
3F
02
01
04
3D
3D
3C
03
3E
3D
01
3D
00
3D
3F
07
38
04
01
02
3C
3C
01
3A
3B
06
3C
01
02
01
01
01
00
02
00
01
3D
04
3A
38
05
3D
06
01
00
3B
3E
01
01
37
3E
3C
00
06
38
02
3F
01
36
05
05
3B
05
03
04
3B
3D
3D
33
04
02
05
03
3A
07
37
06
35
3F
03
03
05
39
02
3F
3E
3F
3E
01
03
3D
01
05
01
01
03
03
3A
3C
03
3E
06
3F
3E
0B
03
39
02
09
3B
00
00
08
3A
39
3D
04
07
3E
39
04
39
04
06
05
3A
09
3C
3E
02
03
06
03
0C
04
01
3F
05
3F
04
03
05
01
3D
04
01
05
04
3D
0C
0C
01
03
3D
02
08
3E
39
06
3C
05
02
03
3E
04
3E
3D
09
3B
39
01
3D
06
3D
01
3A
07
37
39
02
01
3D
02
03
3F
04
3F
00
02
38
3D
39
05
39
3B
00
05
03
3E
3F
3B
04
3D
02
02
3F
05
38
00
01
03
3A
3C
04
3A
05
0A
06
3F
00
04
06
00
3D
3D
3E
06
3C
06
08
02
3B
02
3A
01
04
03
38
0C
02
04
3D
3C
3B
01
01
03
03
08
3F
03
3E
09
04
06
36
3F
06
00
04
06
07
03
03
3D
07
3D
3B
03
3F
3F
3D
3A
06
02
08
03
02
3B
01
3F
3C
00
3A
0C
01
3E
3A
04
3A
02
3C
03
00
01
02
0D
05
38
03
01
3D
3F
01
3B
01
08
09
39
3D
3E
34
04
06
08
04
01
04
01
06
3B
01
05
01
08
3D
3C
3C
3D
3D
0C
00
00
39
3A
00
00
06
38
01
3D
3B
03
3E
02
3E
03
3D
3E
38
01
08
02
3E
39
3E
00
3A
3D
3A
3B
3D
3D
0A
02
04
01
02
3F
3F
00
3D
01
05
3D
3D
03
02
04
3C
01
05
3D
39
3B
00
05
3F
04
02
05
02
05
39
03
3F
3E
3F
3C
3D
3E
3A
3F
3E
02
01
01
07
01
37
3C
00
3F
3C
3A
39
39
39
3A
05
3D
3F
3A
3E
3F
00
07
03
3E
39
3C
03
01
07
03
39
3D
3A
06
3F
05
3E
36
0B
3C
00
3D
36
02
02
06
05
3E
3A
06
3B
3C
07
3F
3B
3E
02
38
3A
35
04
08
3B
0C
04
02
01
05
03
3F
3D
07
38
3E
06
02
0B
00
03
05
02
3D
3B
05
05
05
03
3E
3F
3D
09
03
00
03
00
3D
07
3E
3A
00
06
3B
06
02
3C
03
3D
3F
3B
3F
01
03
3F
04
3E
07
3C
3B
39
35
09
01
07
07
03
07
00
3C
37
3F
04
3D
01
0B
38
3E
3A
34
00
3D
0C
08
04
3E
33
3F
00
3A
00
3D
00
3A
3B
39
3F
35
01
03
3D
3D
01
01
05
3D
3F
3E
05
3E
3D
03
38
39
3B
04
37
03
3C
04
0A
39
07
03
39
00
3F
00
03
01
03
02
3D
3E
03
01
00
3F
3B
3A
35
03
06
07
01
02
02
39
04
03
01
3F
3F
35
04
03
04
3A
3E
06
00
01
38
3E
39
3E
38
3B
3D
3C
37
3B
0A
3E
01
08
3E
05
3D
01
3A
3D
3D
3F
04
02
38
00
0A
3F
3D
3B
3B
3F
03
06
3D
04
04
07
37
3D
07
3E
3E
3A
39
05
04
39
06
02
3C
05
37
05
35
02
02
04
37
06
08
39
04
02
04
3D
06
3E
3C
00
3E
3C
3A
3E
08
00
39
06
01
3F
05
3A
3A
3F
37
00
01
3B
01
3F
0B
05
01
04
3B
3E
04
07
01
07
04
3E
3F
00
3C
0A
3F
04
36
05
3B
39
3F
3C
3A
0A
3D
01
3F
03
3B
0F
04
00
3D
3F
3F
00
05
05
02
0F
34
05
04
3C
3C
06
06
39
03
3E
00
05
01
00
03
0A
3C
3D
3E
39
00
04
07
3F
3E
06
02
3F
37
07
01
3D
38
3D
08
3D
06
06
3A
04
00
39
00
08
02
3B
06
03
04
3B
3E
00
08
00
3E
3E
04
01
00
05
00
00
01
07
3E
03
3D
3D
07
09
3F
3A
08
06
02
3D
07
3E
05
05
3F
04
3D
3A
00
02
05
39
06
02
3F
3C
3F
3A
07
03
3B
3C
00
3B
01
39
37
07
3F
08
3B
3B
39
00
04
01
03
04
3A
05
3E
3E
3F
00
3D
09
04
01
3D
3B
04
3F
01
06
05
3C
3A
3C
3B
3E
07
3C
3F
3F
3C
00
04
3A
06
3D
3D
01
3A
39
06
38
3E
3C
02
3E
3F
08
3B
01
02
06
3A
3C
3B
3D
3E
3F
02
05
3C
3B
03
3E
03
05
36
3B
3C
3E
3D
3F
3B
00
05
37
06
38
03
05
00
0A
02
00
3D
36
3E
3F
00
3C
04
00
3D
00
05
3C
04
04
01
3E
04
04
07
3A
04
04
02
3B
07
3D
01
3D
01
05
05
00
07
03
01
3B
38
38
01
3B
04
3D
08
00
3E
3B
01
05
3F
01
05
00
3F
38
03
3D
01
3F
00
04
01
06
01
3D
36
02
3E
3D
00
36
3C
3A
3E
37
0A
01
3E
02
3C
03
35
34
01
04
38
03
06
35
06
3F
00
02
01
00
03
39
3B
01
06
3E
09
05
03
00
00
3D
3B
02
07
01
04
3C
0A
01
03
05
3D
3E
01
07
06
3F
03
01
00
01
3B
06
02
3F
3A
3C
3F
3D
02
07
02
02
39
3E
00
02
08
03
01
02
01
39
3D
04
00
3E
07
3B
02
3F
05
39
3F
3F
38
3F
39
33
01
03
04
3E
36
3E
3A
02
3D
32
01
07
08
07
02
3E
3E
3A
03
05
05
3C
00
0C
00
3E
3B
04
3F
3C
08
08
38
3A
0A
02
01
06
0B
04
3B
02
3E
03
04
3B
3D
07
02
00
00
02
0C
3F
3F
3A
3C
08
08
02
06
02
39
3E
3C
03
3C
01
05
3F
38
3E
38
3E
3A
34
07
3B
07
3B
3C
3B
07
01
05
06
38
0A
05
3B
3D
00
3A
05
08
05
3D
3F
06
02
0B
3E
02
3B
3D
38
38
05
3D
03
01
36
3E
39
09
3F
09
08
02
3D
07
3E
04
3A
3B
3F
3F
3C
3B
03
02
07
02
08
01
39
05
00
04
37
3D
00
3A
39
02
05
3F
3E
3A
3E
3B
39
39
05
3D
3B
05
3A
3D
3D
3A
3F
0F
3B
06
38
01
03
00
02
3C
3B
05
06
04
00
01
01
0D
07
03
03
05
04
3E
39
07
3C
3F
02
3D
04
3F
3F
05
38
03
3B
03
3D
08
07
3D
03
3F
05
01
02
3C
05
03
3E
3F
06
07
02
3B
04
3B
01
3C
39
3C
3B
02
3F
07
3B
00
3E
39
01
00
39
05
3C
07
3F
3E
02
38
3D
10
04
07
3D
04
05
3C
3B
3C
39
00
03
03
04
39
39
06
03
03
3B
3A
01
3B
06
3F
3B
3D
00
00
04
3F
02
39
39
02
38
3E
3F
3F
05
08
08
03
3E
05
3D
03
3F
04
3D
07
03
03
03
07
03
03
00
05
3E
3F
00
3C
00
0A
3E
3C
03
3B
3D
07
3F
06
04
02
03
3C
3A
3C
3B
07
04
06
05
04
03
3F
3C
3C
04
39
02
05
3E
38
3E
08
00
02
00
3E
3C
00
3F
3B
01
03
39
3E
3F
39
3E
3A
3A
3B
00
07
07
01
3C
03
04
38
08
00
3A
37
00
3D
05
3E
04
3D
3B
3B
04
03
38
01
02
3E
3E
05
04
3E
3A
05
3A
3D
03
3B
39
38
3C
3B
3F
04
3B
08
3F
3B
3F
3C
02
38
05
02
05
38
00
3F
38
02
03
03
01
02
03
3E
3E
04
3C
02
04
00
01
07
02
05
00
00
00
3A
07
07
3A
0B
3E
04
03
3D
3F
07
06
07
04
3F
03
01
3E
05
3C
09
3F
00
08
3A
3C
3C
3E
3E
08
38
3F
03
38
02
3C
04
3C
03
06
02
38
02
36
3A
38
3E
06
3D
38
00
3B
03
01
3D
01
04
3C
02
3E
06
39
02
02
00
06
03
02
3A
38
08
01
06
00
02
04
07
3A
3F
03
04
3D
09
06
3E
3D
04
00
3F
3B
07
3B
3D
00
3D
02
02
07
3F
02
3C
3F
3D
06
3A
3D
05
3B
01
03
07
06
3F
3A
3E
04
3D
3C
02
04
3D
00
3A
01
3A
03
03
03
3D
39
06
3C
06
3B
3E
3B
07
02
39
3F
05
08
3F
06
37
3A
02
3B
3E
01
07
00
3D
05
3A
3D
3E
3C
00
07
05
02
02
00
3B
04
3B
38
3C
3E
3A
03
04
3B
03
05
03
01
03
09
04
03
08
02
03
00
3F
3C
3E
3D
3B
3C
00
3F
02
02
07
3F
3C
3B
3B
3D
04
03
3F
3F
08
3B
04
03
3F
05
05
3E
01
00
36
04
03
3B
01
09
02
37
3A
39
3A
3C
03
3E
01
05
3C
00
05
06
06
09
37
04
36
39
3D
02
08
04
07
3F
05
01
3C
3F
03
02
3B
0A
3E
3E
05
07
04
36
05
3C
39
04
05
39
3E
05
09
07
01
3D
03
07
3F
05
3C
37
05
3C
00
39
3A
05
36
3F
3C
03
0C
3E
06
3E
00
04
03
3E
3A
03
39
3E
05
02
33
3F
3C
3E
3A
02
37
3B
3E
3F
03
3B
39
06
38
3A
37
3D
03
39
06
39
3A
38
03
06
3C
3C
3B
05
3C
3F
03
00
05
02
00
01
3A
39
3F
3A
04
3D
38
3F
06
07
36
3E
38
01
02
3C
3C
39
3A
3D
01
39
04
04
3E
03
04
05
05
38
02
3A
01
03
3C
04
03
00
04
3E
03
3D
3D
3C
01
03
3B
3C
3D
3F
02
3D
01
02
3E
04
04
3D
06
06
3E
3E
39
3E
00
3F
3D
08
3E
08
3D
39
06
37
03
3E
38
38
07
0A
3C
3F
3D
01
3C
08
06
02
37
04
05
39
04
02
0A
0B
06
05
03
05
01
07
02
00
3E
00
02
03
37
04
01
01
04
04
04
3A
03
02
3E
00
01
04
04
38
3B
01
3E
06
3A
02
03
05
01
07
08
3C
3F
05
07
00
36
00
01
05
02
07
04
00
08
00
05
00
35
03
02
39
3D
36
3F
04
03
02
09
3E
03
05
06
04
3C
00
05
37
05
36
04
3F
03
3C
01
00
03
08
39
3D
04
01
3E
3D
3A
04
38
06
39
08
07
3D
3A
3D
3C
3D
3D
38
03
38
3D
08
06
3D
3C
00
3B
00
3C
06
39
03
00
3D
06
3D
07
3E
3A
39
3D
3B
3D
3E
01
08
04
3E
3D
3D
07
04
3D
04
3C
01
03
39
02
3C
01
05
01
3F
3B
3E
01
3E
05
03
3E
01
3B
38
3C
08
3D
05
3B
36
01
3C
05
02
01
07
3F
3C
06
3D
3C
01
39
3D
01
35
3D
03
3C
01
00
00
01
37
3A
39
39
01
37
07
00
02
07
3B
01
04
3C
08
01
3B
3A
38
39
03
3E
3E
00
3E
3A
04
01
39
00
00
3A
3A
3B
3E
3E
3A
08
0B
05
00
05
09
01
39
04
01
3C
03
05
38
03
3F
05
07
08
08
37
03
00
3B
38
3B
3F
02
01
07
04
3B
38
3A
3C
3F
07
08
3C
03
38
39
39
3F
00
09
39
3B
02
02
03
38
3B
07
00
3B
01
01
3E
03
3B
3D
3E
09
3D
0B
3F
3C
3E
38
05
05
3B
04
01
3D
05
3C
01
04
08
3C
3D
39
34
3B
03
3E
04
38
3B
09
03
02
05
0A
04
05
3D
3E
05
04
3C
3A
3E
03
01
3C
02
3B
39
05
06
39
03
03
03
3A
3F
3B
07
39
07
3F
3E
37
00
3D
03
39
02
3F
3F
02
05
07
06
01
07
03
3C
3F
05
02
01
08
3F
05
01
01
02
3E
3D
00
04
38
00
39
0A
3D
02
06
3A
05
00
3B
03
3A
02
3E
3A
00
38
3B
01
02
02
35
02
3E
01
3D
08
3B
3E
3F
3A
02
3D
39
02
08
39
3A
07
3F
02
05
3A
04
3D
01
3F
05
03
01
02
03
3E
3F
02
36
02
3C
39
02
00
06
08
00
3F
38
3B
37
04
39
3D
06
3D
3F
3B
3B
00
04
3F
3A
08
05
01
01
08
3D
3E
3A
3D
3C
04
01
3A
02
38
01
03
3C
39
35
3D
00
01
3D
3B
3F
3C
02
39
03
3E
07
02
3F
3A
04
36
06
3D
02
3B
09
04
3B
01
01
3D
05
3A
02
00
04
3A
3D
3C
05
04
03
38
39
05
3E
3F
02
02
3B
01
01
3E
03
06
08
3E
09
3E
3A
36
01
02
38
3B
3D
0B
00
02
02
00
38
03
0E
3B
08
01
05
3E
38
02
3E
0A
3E
05
09
3C
06
03
07
04
38
00
05
01
37
3B
3A
05
02
3B
07
06
3F
00
3F
38
07
01
00
3E
3A
04
01
06
38
02
3B
3C
06
01
00
39
08
3E
03
01
39
01
02
05
3A
3F
01
3A
3D
05
07
38
08
3F
3C
02
03
39
3A
01
02
3D
01
06
04
08
07
3E
01
39
04
05
3E
00
3B
03
05
01
02
06
08
3B
0C
38
3F
36
3A
3F
39
3F
3A
07
01
02
3D
00
3B
01
00
3F
04
3C
3E
00
04
3A
04
03
01
04
06
3B
3E
00
09
01
3C
38
3A
05
03
3F
06
39
3A
04
04
01
05
37
06
03
3B
3C
38
00
09
3E
00
3F
3B
3A
08
05
3D
3B
35
3C
37
3D
3D
0C
05
01
00
02
05
3D
3C
00
39
08
3C
06
03
39
00
03
03
39
3D
01
3E
03
3B
00
39
05
02
3C
01
03
3C
02
08
3E
3E
03
05
3A
3D
3B
36
39
3C
39
3F
02
02
02
08
3F
07
06
05
3A
06
02
03
3D
3F
0A
06
02
09
03
04
07
3D
01
3E
04
3F
3E
3C
3D
07
01
00
3E
04
33
00
3E
00
04
36
3B
00
3C
02
03
39
03
06
05
3D
02
01
01
3B
05
3A
08
01
05
3C
06
3C
3F
3C
05
38
02
07
3B
04
04
07
06
3A
3D
3E
3A
05
02
3C
07
3A
00
07
08
06
3F
03
04
37
01
06
04
3E
3C
06
01
01
3D
01
3D
3A
3F
3C
3C
02
3F
3F
08
03
3B
00
01
3F
37
3F
3B
3E
00
3E
02
05
04
01
03
3B
00
03
01
04
3F
03
3D
39
3F
3B
00
00
3E
3A
3D
03
3E
3C
03
04
3E
3F
3D
06
04
06
3D
39
3C
02
05
3A
35
03
39
3E
01
05
02
06
3D
06
00
00
05
3C
00
3B
3E
02
02
3E
05
00
3B
02
05
06
00
3B
3B
3B
05
05
00
07
3E
09
01
04
02
3B
00
04
00
3B
01
3F
02
00
08
3C
3C
3C
01
03
08
05
3F
0A
08
01
03
03
04
3F
05
3D
3E
3B
3D
02
05
02
01
09
3C
04
00
01
03
3D
04
08
3C
00
3F
3E
01
3D
05
09
3C
3B
09
05
05
01
3E
00
03
03
01
04
3F
3B
3F
3D
04
3F
02
3C
3B
02
06
3B
3E
3F
02
08
01
3E
3B
3D
00
06
06
01
01
01
01
39
36
00
39
08
3C
04
3F
09
02
00
3C
39
01
3B
02
05
05
3A
37
0A
05
06
3F
3D
39
3E
3C
39
39
06
3A
37
39
35
00
3D
00
04
00
05
04
3F
06
01
38
0B
3C
00
03
00
39
3A
05
06
38
3E
3A
09
03
06
3E
08
00
07
05
00
38
04
3D
3D
01
04
03
0A
3D
02
01
01
3D
3B
3E
3C
06
39
05
01
01
04
3F
07
06
00
09
01
3A
04
3A
03
3E
01
05
08
05
00
01
07
05
3C
02
08
38
3C
03
3C
02
00
06
04
00
3F
3F
37
3E
3F
05
3A
09
03
06
3E
00
36
06
3D
3D
38
05
38
02
3C
08
39
3D
3C
03
03
01
3A
01
01
35
38
00
3E
3B
3E
06
04
3E
05
3F
02
3F
00
02
00
04
3B
0C
00
01
3E
3E
3B
05
3C
02
37
3D
08
06
3A
0A
3F
08
0A
3B
00
39
04
04
08
09
00
08
04
03
3C
00
01
3F
05
08
01
03
05
00
3F
08
3D
02
00
06
3D
3F
35
00
37
3E
3B
3F
06
01
3E
39
3D
37
00
3E
3E
38
36
03
3D
02
3F
02
3B
3A
08
01
02
3F
07
02
02
02
03
03
03
04
01
0A
01
05
08
39
3E
02
04
3D
3B
05
3C
3E
3E
3C
39
04
3B
05
06
00
3D
02
08
01
3A
39
03
06
01
00
3E
03
02
02
02
03
3C
08
05
3C
05
3C
3C
3B
00
01
3E
3B
3C
00
00
3B
07
3F
3E
3C
02
00
3D
04
03
3B
3F
3F
3F
3A
06
00
00
3D
01
3D
3C
03
3F
00
00
3A
38
04
3B
39
01
3F
01
02
0B
05
3B
3E
00
00
3A
02
00
38
38
00
01
01
3F
0A
00
04
06
39
3A
03
35
06
06
3E
02
3E
04
00
00
03
05
38
00
04
3C
3F
3E
02
03
0B
3C
3C
3D
03
00
3A
01
39
06
37
39
3C
3F
3E
3E
3C
04
3C
3C
02
3E
3A
3C
05
06
3F
03
3C
39
3C
3A
01
3F
38
06
03
09
3D
05
3F
3C
3E
04
38
3B
3C
3C
3C
38
3A
3E
3E
06
05
3F
01
3D
3D
00
06
2F
04
00
3D
00
3D
07
3E
3C
03
3B
3B
3A
08
3A
05
01
03
08
01
37
3F
06
05
3F
3F
00
3E
01
37
37
06
3F
07
04
34
06
00
3C
3F
3B
08
3F
01
3D
06
3C
3C
02
02
3D
39
07
3A
3E
05
3D
3D
39
06
06
3E
39
38
3E
04
00
08
3B
3A
3B
3C
01
3A
38
3E
3E
01
39
00
05
01
0A
09
06
02
3D
39
00
3E
02
3C
02
0C
06
3D
05
3D
05
04
06
09
00
00
06
03
03
07
3D
0C
0D
3E
3F
3B
06
02
03
3E
3F
03
39
32
38
03
3F
3E
3B
01
3B
00
3B
06
04
3D
05
03
3C
3A
03
07
39
08
3B
3C
39
3E
01
08
02
05
07
3A
3D
3E
3D
3D
3D
3E
3D
3F
3E
3C
3E
00
02
04
01
02
03
00
0B
3F
3B
05
0A
08
3C
04
01
3F
3A
07
01
3F
00
00
02
02
3D
06
04
03
06
3F
02
04
3E
3D
02
35
3E
36
05
04
35
06
04
00
05
3A
3A
02
03
02
02
3D
37
04
05
07
03
3B
00
39
39
3A
00
06
3F
39
01
3C
03
0B
07
03
03
3F
00
3A
3D
04
03
3E
3C
02
00
37
04
01
02
01
02
3A
00
3B
02
04
3D
3F
3D
03
07
3D
05
39
07
3B
3C
00
05
01
05
07
3E
3F
3F
08
39
38
3B
03
3D
00
3C
3C
02
3D
3C
03
00
06
3D
03
04
3F
3B
09
05
3A
3B
37
08
3C
01
04
3D
08
3F
3C
3B
02
04
39
05
3B
05
00
3B
02
00
3A
3C
03
3D
03
3B
05
3C
07
00
3A
3E
01
04
04
3E
02
3D
3F
3B
3B
3D
06
39
3F
06
01
09
05
00
3C
3F
08
3D
3D
3C
0C
02
00
01
07
09
00
3A
01
04
00
3F
00
39
3E
3C
05
00
3B
3E
06
07
00
3A
3E
02
3F
3F
05
03
3F
05
03
3A
35
38
3D
3C
01
06
39
3F
00
06
04
02
38
06
35
01
01
04
06
39
3D
00
01
3F
38
00
05
00
09
0B
04
01
3E
3C
04
04
01
3E
3D
36
37
3F
00
37
04
05
07
3C
3E
04
3F
3C
05
3B
3E
03
3A
04
3A
36
3A
07
02
04
38
3F
3F
04
04
3B
03
3D
01
01
37
36
00
06
08
01
3C
09
01
3B
07
00
3F
38
3D
05
36
3D
3F
3D
36
04
33
03
00
3E
02
3A
03
02
3D
3E
3F
33
3E
03
3B
3E
00
3F
3A
08
00
02
04
01
3B
3C
3E
3B
34
08
36
3C
02
02
0B
39
3D
01
00
01
05
02
06
01
3F
09
3E
01
3C
09
3F
03
00
00
04
3A
06
3E
04
04
3F
38
3D
3C
39
06
03
00
02
03
02
02
3F
3D
05
05
3C
39
02
05
04
01
3D
05
04
02
00
00
3F
03
3C
02
04
3F
00
02
00
3D
02
3C
04
3E
3E
3C
01
3D
07
00
06
3C
35
02
3E
3D
07
3F
3E
39
05
01
04
02
3E
3D
06
04
06
3D
00
39
02
08
03
3E
0A
00
04
09
3B
3D
07
3F
03
06
35
00
02
07
3F
04
38
02
04
3E
03
3A
05
00
07
3F
03
04
39
05
02
07
3B
04
38
3B
3F
3B
05
09
04
03
03
3F
39
01
06
01
06
3D
02
07
03
02
03
3A
00
3B
3C
04
3F
3C
37
01
02
03
3B
35
03
3B
05
3A
00
3B
04
3E
04
3C
3B
04
3C
01
04
06
06
08
04
05
02
06
3C
04
3B
08
37
04
3D
08
0B
3B
05
3D
3E
3D
01
3A
3E
01
03
3C
3B
3C
3E
05
3B
01
00
02
08
04
3C
3D
02
04
3C
08
3B
35
3D
0B
38
07
03
07
36
05
3C
3A
00
3D
3F
3A
04
02
38
00
01
00
01
09
03
0A
38
01
00
00
3C
3C
39
3B
3D
3E
3E
3D
01
02
02
03
3A
00
37
3F
06
06
3D
02
3F
3F
03
09
3D
3F
00
3E
02
3F
34
3D
3E
01
02
00
02
3E
00
05
3C
0A
3E
38
04
03
3A
36
00
02
39
3A
3F
04
05
07
3C
39
04
09
08
06
38
3E
3C
08
3D
02
07
08
07
05
06
34
38
3D
3D
03
00
3B
39
3D
3C
03
38
06
3D
01
00
39
03
00
02
3C
37
05
01
3E
02
02
3F
02
3A
3E
04
05
02
3E
3C
3C
01
05
00
08
3B
04
05
07
09
11
3E
3B
3D
05
03
0A
06
00
37
3D
3D
3D
38
34
02
01
3D
00
04
3F
03
01
0A
39
0C
03
04
06
01
3F
06
3D
06
0A
38
3C
01
39
06
3F
3E
3C
01
06
3C
3D
04
02
01
3D
3E
06
00
3B
06
38
3C
3C
3E
3A
06
3F
08
04
3F
3E
01
3B
03
3A
3B
3E
01
3D
03
05
09
3B
3E
3F
3F
3F
06
05
01
00
3E
3F
07
37
3C
00
3E
03
3D
06
03
39
04
37
04
01
04
0B
01
02
00
3E
3A
3A
07
3D
38
3B
39
38
04
3C
03
04
3B
3D
07
3C
05
06
05
3E
03
01
3F
3C
08
06
00
3F
3F
38
3F
01
3F
3C
00
01
02
03
3E
38
3B
01
00
3F
04
3C
01
05
3E
03
34
3D
01
03
02
02
38
02
3D
06
06
01
3F
38
08
01
04
0B
3D
3F
04
04
04
04
02
0A
3C
09
01
3F
03
00
00
02
3A
39
00
04
0F
3D
05
00
02
05
04
00
3D
06
06
39
02
38
06
06
3A
03
00
3D
39
3B
01
3B
03
05
00
02
3A
3C
3F
08
00
08
39
02
00
02
05
38
02
01
01
03
3A
00
3F
08
3E
02
00
3F
3F
00
3F
3E
0A
3E
00
00
3C
3E
3F
3F
03
00
00
08
38
0A
3E
02
3C
09
08
3D
04
3F
3C
36
01
08
08
04
03
09
05
02
00
3F
3E
33
3E
3B
04
39
3E
06
03
3F
00
03
00
00
01
04
02
36
03
0A
01
3D
39
3F
04
01
3F
04
3B
06
3C
07
03
39
3E
3F
03
3F
04
08
39
06
05
03
3B
3D
0A
07
3C
3D
36
01
09
3F
3C
02
02
00
02
3B
3E
3B
3A
05
08
02
3E
02
05
3E
3C
03
38
37
3F
0B
03
38
3C
02
06
01
08
0B
3A
01
38
3C
06
39
08
09
3D
00
3F
08
0A
00
09
09
06
01
07
04
0A
0A
01
3F
02
08
06
04
05
05
3E
06
3E
00
3A
02
3E
3A
06
3D
3C
3B
3E
3D
01
00
3F
3D
3B
00
35
3C
3F
04
36
03
05
39
3D
39
00
3B
04
02
06
02
02
3F
04
01
3A
3E
00
3F
07
01
3B
08
3C
3F
07
08
01
02
02
07
07
04
05
07
05
01
08
02
05
3F
06
01
00
3E
05
3D
04
05
05
00
3C
05
04
3C
04
02
03
3D
04
06
03
3C
01
06
04
05
36
38
03
36
3A
02
04
00
39
03
3A
38
06
3A
3C
3B
02
3F
36
01
3A
3D
3A
3E
35
00
3A
04
04
3C
3B
3B
06
3F
05
07
3B
00
04
00
3E
3C
09
3F
02
3F
3C
03
3D
00
3D
3E
3F
3E
3F
3B
04
3D
05
03
01
3C
07
37
05
3F
3F
07
00
00
3E
01
3E
06
08
3B
3F
3D
07
02
06
37
08
01
3A
3E
3A
3C
3B
39
3A
00
00
34
3C
03
36
3C
3A
39
04
02
00
07
3B
08
3E
01
35
3B
38
33
01
02
00
3D
04
04
01
02
36
09
06
06
02
3D
04
3C
03
01
01
3B
05
39
01
05
07
02
02
3D
38
3C
02
3B
06
3B
06
06
3B
3E
08
02
05
3E
3C
06
00
3C
01
39
3D
3D
09
3D
04
3E
02
04
3B
04
38
06
3B
01
03
3F
05
3C
02
02
02
3B
04
3B
38
08
39
3A
35
01
05
00
3F
38
3F
0A
04
3C
03
0B
36
3D
3E
00
07
3B
06
00
01
03
09
3F
3C
03
08
04
06
06
03
00
07
00
3C
3B
3E
04
00
06
03
3F
01
01
03
02
03
3C
09
3F
3D
06
03
3B
02
3B
04
3C
3A
06
09
3C
3F
09
01
05
3E
3F
04
03
3C
04
3E
01
3F
02
0B
08
0A
07
3E
3B
05
3B
3D
01
3C
3F
3B
0B
05
3E
01
3A
06
04
00
3E
00
04
39
3A
3F
3C
3F
00
04
3D
3F
0B
04
3B
3A
06
00
37
00
08
01
3B
3E
3C
05
3F
3B
3F
3B
07
05
00
05
00
0A
00
01
39
3B
03
00
3F
0C
00
04
08
34
08
04
3E
07
03
08
08
3D
02
3B
03
0D
02
00
09
3C
3D
03
3F
39
3C
00
3F
39
00
05
06
06
3F
04
00
3A
3A
3A
02
3A
3D
3F
09
3E
04
0B
3C
36
02
39
3D
3D
3C
3F
38
00
3D
07
3D
09
02
05
00
07
3E
02
01
3A
02
3F
00
03
00
3E
05
3D
05
39
3D
07
02
00
36
00
06
06
06
3D
04
01
3F
01
39
3E
06
06
3E
3A
08
3F
3A
03
04
36
3A
3E
04
3D
3C
01
01
3B
39
3C
38
02
39
03
07
3F
3D
02
3D
02
3B
37
3D
02
3F
3F
3A
01
0A
3A
07
02
3C
38
3D
08
38
32
3E
3E
3C
01
3B
04
04
01
3C
02
08
39
04
02
01
3F
05
07
3D
3E
3A
3C
05
01
08
3C
3E
00
01
05
03
3C
06
02
3A
08
02
3B
02
3B
39
04
3E
3E
03
3B
05
3F
03
04
3D
3C
3D
3C
03
3A
02
3F
3F
3C
01
39
03
05
3D
05
06
08
01
3C
05
38
38
04
02
03
00
3C
3E
32
3C
05
3C
3C
36
07
06
02
02
03
3D
3E
02
03
3B
03
01
04
36
02
3F
3A
3A
3E
03
00
39
00
3B
05
3E
02
09
3D
01
3C
38
05
05
3C
00
07
05
08
02
3A
3B
03
03
3E
0A
3A
01
02
08
06
38
01
06
3B
05
39
3D
39
05
0A
3B
3A
3E
01
3F
3A
3E
3E
02
3B
3C
02
00
04
3A
06
3B
3D
3C
3A
04
3F
06
3D
3F
37
3D
3B
02
07
03
3C
07
3E
3D
01
04
3E
04
05
3D
3A
3B
00
03
3D
3C
3F
3C
3D
3F
3B
3E
02
07
3C
04
03
04
3C
3C
3F
03
03
3C
02
01
3A
01
06
00
3B
03
00
04
3D
01
3D
3A
03
05
3F
05
01
00
04
3F
02
38
04
06
3C
01
07
3C
01
0C
05
3B
3B
04
3C
39
05
00
00
07
02
01
03
3F
39
3A
01
3A
09
3D
05
08
3D
39
05
05
3F
03
3E
05
00
01
03
3E
3E
3D
3E
01
3E
00
3E
05
05
03
04
00
0A
06
3E
04
09
39
01
06
3E
07
03
3F
00
07
01
3B
07
06
05
04
03
3B
3F
06
07
3E
3B
3F
01
02
05
09
06
04
3E
3E
39
07
04
02
06
04
04
03
06
3F
00
04
01
3D
07
04
02
3F
08
08
3C
3E
02
3F
01
05
3B
05
3C
3B
09
03
03
00
3C
02
06
3A
02
05
00
3D
06
3C
06
3A
3C
02
03
07
3A
05
3C
3D
3E
3C
03
08
01
37
02
37
38
3D
01
00
02
02
00
06
39
07
05
04
37
3D
39
3D
01
39
3D
3F
02
0B
03
07
36
07
3E
05
39
3B
07
37
39
3C
04
06
00
3B
3C
3E
02
00
06
07
02
05
39
01
02
02
3E
05
01
3D
03
01
05
07
02
3D
3B
04
3C
3D
03
3F
07
03
02
3A
3D
3F
04
36
01
05
06
38
02
3E
02
3F
03
38
00
01
3B
05
01
02
3C
3D
01
38
02
3B
3C
01
3A
03
3F
38
3B
3F
3D
00
39
38
3B
36
3F
36
3A
39
3E
39
00
07
02
3E
3D
39
02
00
3A
3E
3A
3D
3D
3F
39
38
3B
03
06
06
00
3F
07
03
3F
3C
3F
3C
00
3B
3C
07
04
37
3D
06
3D
3E
06
01
35
00
0D
3B
38
35
3F
04
3B
3C
01
3E
3C
00
3B
07
3A
3D
06
3F
01
3C
08
37
37
01
3D
36
3E
3E
3F
05
38
3F
3F
01
05
05
09
38
3B
07
00
02
05
39
3A
03
00
39
09
04
0C
3E
39
00
3B
06
3B
03
04
04
3A
3D
00
38
01
38
3D
00
04
02
03
3C
3B
08
3E
0A
02
01
3E
03
06
3A
3F
07
39
3D
3C
3D
05
3C
3C
02
05
00
09
08
02
06
02
06
09
01
3E
3B
01
00
3A
0D
04
03
08
02
3C
07
39
3A
37
39
3B
3A
04
3B
01
3D
03
3F
02
3E
3C
02
07
39
37
3E
01
03
02
39
3A
3C
3D
03
03
04
06
04
05
3C
37
04
04
02
01
03
38
02
3A
38
01
3F
05
3A
38
3B
04
05
3F
02
01
3C
3E
3F
04
00
03
03
3D
3E
06
01
3A
07
07
05
3B
3E
39
3F
3D
3C
39
3F
06
04
3C
3B
35
06
02
38
01
3B
05
01
3C
3A
3A
01
3F
3A
05
02
02
3B
00
02
39
02
03
04
03
03
3D
3D
00
3D
08
04
37
3E
06
3A
3C
01
3E
3A
02
3D
3C
3B
03
3D
3D
39
02
3A
3B
03
3B
00
02
00
04
3D
01
3B
3C
00
00
03
03
01
01
37
04
02
3B
00
00
00
00
06
09
39
3E
01
36
01
39
00
3B
06
3D
01
3E
03
01
3F
3F
04
3B
3E
00
00
01
05
3B
3F
39
07
3E
37
3B
3F
3E
3E
02
06
3D
3A
05
03
3E
3B
3D
02
3A
39
05
02
3F
3D
01
08
37
3A
08
00
3B
06
3E
0D
3C
37
00
0D
05
01
00
03
3C
03
08
3E
3F
3E
39
0D
05
3E
3F
3A
01
3E
07
00
30
06
3C
3F
07
05
3D
3E
07
3D
05
38
0B
00
07
3B
02
3C
03
01
04
3F
3C
00
02
08
02
3C
03
3D
03
3E
09
08
02
06
3F
08
3D
04
08
3F
3B
05
02
39
00
37
04
3F
3E
3D
08
08
02
03
0B
3F
37
0D
03
02
3E
3B
00
04
01
07
06
00
02
08
05
00
3A
00
3E
3B
02
3C
3B
07
3E
37
3D
3D
3A
39
3A
01
03
3B
3B
3B
3E
05
03
3A
3D
38
36
3B
3A
3C
05
03
01
03
37
03
3B
05
3E
3E
39
01
3E
3A
3C
02
04
04
3E
05
00
3D
3A
02
00
0B
3A
3B
06
0D
3E
3F
09
35
38
01
04
3F
01
05
3F
09
3C
3D
0C
02
05
07
04
08
39
09
04
3B
00
00
0A
3F
02
08
06
03
01
05
05
3F
3E
3D
02
02
04
3C
00
3A
3E
04
3D
00
05
09
00
3D
3D
3E
37
3B
00
01
3C
3D
03
03
3F
3C
3F
3D
3A
37
01
3B
39
3A
05
3A
00
03
06
02
00
01
35
33
09
09
05
00
37
04
3E
39
09
02
04
3F
00
07
3E
35
3B
04
03
01
3D
02
00
08
3D
3E
01
36
3E
39
0A
00
00
3E
08
06
3E
05
3D
03
39
03
3D
01
0A
03
0A
05
08
04
3A
09
3F
3D
37
00
00
08
02
05
05
05
3A
3E
3D
02
01
03
38
02
3A
3C
05
3F
3F
01
3B
38
3E
39
04
08
04
01
3E
04
05
3D
01
05
02
02
01
34
00
3E
37
35
3E
06
3B
08
02
05
00
02
03
03
06
07
00
3A
3D
39
00
3D
05
07
3B
03
3D
04
3A
00
03
04
04
38
3E
3F
3F
3C
3B
3F
3F
37
09
3B
03
01
3F
02
01
3D
3E
04
37
02
3B
3F
04
02
3E
03
3C
03
02
01
01
3A
04
01
02
3A
03
3B
06
05
3A
03
02
3E
3D
3A
3F
07
06
3D
3E
3D
3E
06
04
07
07
09
02
0B
05
3C
01
00
01
3F
3B
05
04
3F
3D
04
3F
02
3E
05
34
3B
36
39
04
3A
03
3C
3E
3F
01
3E
01
3E
3A
09
01
3A
05
3C
01
01
05
00
30
39
3E
3E
01
3E
37
3A
01
00
09
04
00
3A
3E
3E
3C
03
03
3B
3A
3C
3E
02
3B
06
01
03
39
02
3B
38
00
01
3E
0A
3D
00
01
38
3B
3A
04
3B
3E
3C
3B
3B
3F
3C
01
3C
3E
3D
06
3F
3D
02
3B
39
36
3D
01
3A
04
04
02
38
01
04
3F
3B
01
3F
38
3E
38
3A
3E
37
34
3D
07
00
3A
02
3C
02
06
02
3B
3B
02
3C
39
3A
3A
3E
02
01
01
07
3E
01
3F
01
37
02
02
3B
02
04
03
3D
3E
07
00
03
04
02
3D
02
02
3D
3C
35
3F
06
06
0A
06
04
3E
38
09
39
3E
02
3E
3F
36
04
08
04
3E
08
00
05
3A
05
01
00
02
04
3F
04
02
3B
09
3E
3D
03
05
00
05
3F
3B
3F
08
02
3E
36
3C
39
01
04
3A
07
02
3B
3F
3E
03
3C
3A
0A
3B
01
03
02
37
08
03
05
39
3E
04
07
00
02
02
01
3E
00
08
3A
3E
3E
03
08
3C
02
3A
39
3B
00
39
3B
00
05
00
02
3F
01
0A
3E
3E
08
39
3E
01
3B
00
04
03
3F
3D
00
05
3E
3D
3E
3D
01
04
0C
03
00
3B
39
3C
3C
06
01
3B
3C
06
02
3C
01
0C
05
39
0B
3D
3D
3B
3D
06
04
38
3C
02
3B
04
02
3F
05
02
39
06
08
04
00
04
3C
39
3B
3D
03
3B
01
01
05
03
3F
3C
01
03
01
02
0C
03
3A
05
04
3F
3A
09
09
3E
3E
03
01
3F
3E
05
3F
04
3E
03
3A
01
3D
04
3F
3B
02
03
3A
02
39
3E
0B
07
38
04
3E
06
3E
3D
3E
02
02
00
3C
3E
3E
06
00
03
04
02
39
37
01
3C
06
01
3E
02
3F
02
07
3A
01
3D
39
3B
3F
01
3A
39
05
06
3F
01
04
3F
3B
3A
07
03
3B
04
04
04
03
06
00
3D
3C
05
02
36
3F
01
05
01
02
3B
05
01
3F
07
3C
02
04
3B
38
04
3D
02
03
02
09
03
3B
03
02
3F
38
38
03
01
3E
3D
3C
3F
3D
3F
39
39
3C
3C
02
07
3B
38
06
38
3F
05
00
38
07
06
01
3A
3B
38
03
04
09
3C
3C
06
3D
02
07
3C
04
3C
3E
04
3A
01
01
00
07
05
06
3B
07
3A
03
05
3C
3D
3A
05
3F
01
00
04
00
00
09
37
3C
37
00
39
02
04
3A
34
36
03
3D
06
3A
3A
3E
3D
38
05
3D
36
00
00
03
3F
01
35
3C
34
03
02
38
38
00
3D
00
3E
3C
05
37
3D
01
3E
3F
02
09
3D
00
03
07
00
04
3B
3F
00
3A
3C
00
01
3B
3F
39
3F
3C
06
00
3B
06
3C
3B
02
3D
3B
3F
3C
00
38
38
06
06
00
3C
03
09
38
37
3B
3E
06
3D
04
3E
00
3A
3B
3C
38
34
3C
3C
04
01
3E
39
07
3C
03
03
05
3F
00
3A
3D
03
00
01
04
3E
03
39
07
3D
3D
01
00
07
05
3E
3A
07
3A
02
02
3D
3B
3A
3D
3C
01
3F
3D
3B
3F
02
04
01
03
02
3A
00
00
00
03
02
04
39
3E
06
02
3C
02
3F
0A
04
04
01
09
3C
3D
3E
3D
3A
3D
02
3E
3D
05
05
02
02
04
39
05
3E
3E
3D
07
3E
3F
04
08
05
04
3E
02
3C
3E
3E
3D
06
07
02
3E
0A
05
05
3E
03
00
02
3D
07
02
00
08
3A
3F
3E
00
02
03
02
06
3D
03
01
39
03
3B
39
3B
39
3C
3A
3C
3B
00
03
3B
37
38
06
05
01
3A
38
01
3D
06
00
06
3D
03
01
03
03
01
3D
06
3A
05
3F
3D
06
3F
09
03
05
3E
05
06
01
01
04
3E
07
03
3E
3E
08
03
07
3B
09
3F
03
07
08
3E
3B
3D
3B
03
3B
00
06
38
3E
3E
09
08
3F
09
01
08
00
3E
07
3A
01
0B
02
3B
00
05
07
07
00
07
05
03
04
04
02
37
36
0A
3B
3A
0C
02
03
3D
04
02
3C
3C
3E
01
34
3F
3F
38
3D
36
3D
38
01
3E
39
03
3A
03
00
02
3C
04
09
3B
07
3E
3D
3B
04
05
3E
02
04
3E
3B
3E
00
3E
3C
05
05
07
01
00
0A
3D
02
3C
07
02
38
0A
07
3C
3A
01
03
3B
3F
3E
3C
04
02
3B
3D
3F
07
38
3E
05
05
03
02
3F
05
09
04
09
3C
39
02
04
38
03
3C
04
3E
3A
02
36
3B
3F
37
36
02
38
09
3B
3B
00
3E
39
3E
05
07
3A
3D
3D
03
3B
38
02
03
01
3F
3E
02
06
04
00
05
05
08
3E
3F
02
04
05
3B
05
03
3C
3E
3C
04
3A
01
05
3C
08
01
3D
3F
02
02
04
02
04
00
06
07
06
00
3C
3F
3B
03
37
00
05
02
3F
39
08
00
3F
03
04
36
39
01
38
3B
03
04
00
36
3A
01
00
3F
3B
08
3E
39
3D
07
3D
3D
3B
00
3C
01
0A
3D
03
3C
3F
3C
03
04
01
3E
36
3A
09
01
06
06
3E
06
3B
01
07
3D
38
08
05
3A
3E
03
06
02
3D
08
04
02
3F
00
04
3E
03
3E
02
37
3D
01
3C
3D
3A
01
04
3C
07
3C
3A
35
01
3D
04
05
06
01
3C
3F
04
3D
3B
04
00
36
3B
03
3D
03
3F
3B
3C
00
3E
03
3E
07
3E
01
38
3B
02
3F
07
3B
01
01
08
04
3F
02
39
01
04
39
09
0A
3E
3F
02
3B
3E
01
05
01
3A
02
3C
07
00
05
00
03
07
07
04
02
07
06
3A
01
3F
01
01
03
04
3A
3D
3F
01
38
3D
06
3C
3F
3C
06
3F
38
05
03
04
03
02
03
39
06
3F
3B
06
3D
3D
04
06
3C
3B
00
02
3F
02
39
00
3B
05
03
07
3C
36
38
05
02
00
3E
04
02
04
07
00
3E
39
0D
37
36
36
04
39
00
02
02
3F
03
03
05
3F
0A
02
09
3E
05
00
3E
38
35
39
3B
00
01
0A
0B
38
35
05
37
05
02
3D
3E
3B
3C
06
39
04
3A
00
3C
02
04
03
3A
01
00
03
3B
3C
3F
02
36
04
00
35
03
05
06
03
01
35
05
3D
3D
03
03
3C
03
3B
00
3D
34
02
03
04
02
3C
00
06
08
02
35
3F
3F
38
39
38
36
3C
3F
04
00
02
05
3E
02
3B
06
3A
04
37
3C
3B
3D
01
36
05
38
0D
00
05
00
3E
04
3A
3C
3C
3F
3F
3D
3C
04
3C
3F
06
3F
3E
04
3B
3E
3B
04
00
05
04
39
01
3E
07
3A
3A
05
02
3A
05
06
03
3E
3A
3F
3F
02
05
04
3F
07
00
09
0A
04
01
3A
3C
00
3B
3E
3B
33
03
04
37
03
3D
3C
04
03
3D
00
3D
03
3E
39
3D
3D
07
3E
09
3A
02
07
03
08
3E
0A
03
3C
03
00
04
3E
00
38
3B
3A
08
07
09
3E
04
07
03
3D
03
06
0A
02
3D
3C
3B
06
08
02
01
39
3E
3F
03
03
05
07
05
3E
03
01
3E
3C
06
3D
03
05
04
01
3E
02
03
3C
3D
3F
3D
3C
35
07
05
00
01
08
00
03
05
01
39
38
03
03
00
03
3F
01
0C
04
04
39
3C
0A
09
3E
04
3E
00
08
02
00
3B
04
3B
3B
06
00
08
00
3E
02
02
05
08
00
01
05
3B
3E
3C
3D
07
00
05
3A
3E
0B
3F
3A
3B
37
3E
00
3C
01
3B
04
01
00
3F
01
3B
03
3B
02
3B
3C
04
3F
01
3F
05
08
3F
01
3E
03
01
01
06
3D
05
04
08
02
3C
01
0B
3B
03
3F
00
08
3A
0A
03
07
00
01
00
3D
3C
3C
05
38
01
04
07
05
02
00
3C
04
3E
05
3C
00
01
02
3D
3D
05
3A
3E
3D
03
09
3E
3F
3F
3F
3B
3E
37
3C
07
00
37
02
00
07
39
3F
3D
3C
37
04
07
08
3F
04
00
05
3C
39
01
04
3E
3F
05
07
01
01
05
37
06
3C
01
04
00
3E
3A
01
03
3B
3B
02
3A
07
3B
39
01
38
37
05
04
02
08
3F
3F
04
01
3A
3F
3F
03
3C
05
3D
3A
08
07
05
08
04
39
03
3E
01
05
03
39
09
03
3C
38
02
3E
3D
00
3E
06
06
05
08
02
3C
01
3B
3D
02
03
3F
01
02
39
3C
03
39
38
39
3F
3E
03
3D
37
3B
09
3A
01
3D
0D
3F
00
00
3F
3F
04
3E
04
3B
3F
00
02
3D
05
39
02
03
00
09
3B
3C
07
3B
05
06
3E
3E
03
03
3E
3F
05
04
02
00
3C
3C
3F
03
00
02
03
05
3E
03
3D
03
02
3E
00
3B
05
05
02
01
03
01
34
3F
3F
3C
3F
39
00
3D
38
3A
3F
3E
07
01
04
3A
3A
38
3B
3F
05
3E
3D
39
00
3C
3B
01
3F
3E
04
39
3B
00
03
00
03
02
3C
39
3C
3A
3F
3A
01
3F
03
00
03
02
08
02
08
01
09
02
01
00
03
01
04
05
3B
3C
02
3E
08
06
02
01
06
02
01
05
3E
39
3F
08
39
3E
01
01
01
07
3D
08
3C
3E
38
39
3D
01
3C
0F
04
02
3C
3F
3E
03
05
3A
3D
3B
02
01
07
3B
02
03
3E
01
04
3D
04
00
00
00
00
05
00
06
3A
3F
3C
0B
04
3A
3B
04
07
05
07
01
01
01
3B
3D
05
00
01
01
39
07
01
3B
3E
06
03
02
05
38
3A
04
05
3B
00
00
02
3F
38
38
02
3C
03
01
3B
3C
3D
07
3F
00
09
3B
3B
3E
39
06
3B
39
09
01
3E
02
03
09
01
39
04
3A
3B
00
04
0C
3B
3D
0B
09
05
02
03
09
04
03
0A
08
3C
02
07
3D
37
3D
05
08
02
3C
07
06
3C
03
06
00
3E
3D
06
39
3B
3F
07
3F
3F
02
3A
3F
03
3C
3A
3F
3F
03
33
32
0A
3A
01
3F
00
3B
38
04
3C
3A
3E
3B
09
0A
39
3E
04
06
0D
02
07
06
03
0D
3F
08
03
07
07
03
3F
3B
00
00
0F
07
03
3A
3E
0B
36
37
02
38
04
02
03
02
3C
3B
04
3F
02
3D
3E
39
3C
37
3F
37
3B
05
00
01
34
3D
3E
39
02
04
01
3A
07
07
05
09
00
00
0D
01
02
09
05
07
09
02
06
06
0C
05
0B
05
09
0A
01
04
04
3B
3D
06
00
3D
3C
07
02
06
37
3D
05
01
3B
3F
39
04
3B
05
3F
3B
3F
08
01
38
3F
02
3B
38
08
3C
3C
02
00
3D
34
3F
3D
03
3C
03
3B
01
02
39
3F
39
03
05
3C
3A
07
03
3B
37
3F
00
3D
03
3F
04
3A
39
3B
3C
3D
07
05
03
07
3D
3E
06
02
3C
3C
0C
05
02
3C
05
08
00
3F
01
39
07
01
03
00
3E
3B
3C
3D
39
00
3E
3C
04
35
01
3F
39
3F
05
08
3F
3F
3C
3C
05
02
03
00
3E
03
3B
04
3F
3E
00
00
3D
3C
3D
3B
00
03
04
3E
04
01
3E
03
3F
39
04
3D
3F
3B
00
35
04
3D
39
3E
06
07
08
3C
3D
05
3E
3D
3D
02
04
04
00
02
3F
3A
01
3E
05
01
3C
39
3C
3F
3D
3C
3B
05
3F
3A
3F
38
02
02
05
39
05
3D
3D
37
06
3B
01
3C
3C
3C
06
3A
3C
3A
3B
01
07
02
3D
38
01
3D
00
37
3D
37
3C
07
3D
3D
06
3A
3F
00
06
02
3B
01
03
00
3C
3D
3A
03
3D
08
04
02
3F
02
3A
02
04
3A
04
00
04
01
3C
3C
3A
04
02
3A
04
05
05
3C
3D
3E
03
05
03
38
3F
01
3D
3A
39
3F
00
3F
39
3D
07
03
07
3B
00
01
07
3E
3B
3F
3D
3E
08
02
01
3F
39
01
04
02
03
00
06
07
05
08
05
06
05
06
03
04
39
3C
3B
3D
3F
06
05
3E
38
00
01
3B
04
39
3B
3B
39
3B
37
3C
3E
0C
02
3A
3F
02
05
04
3C
01
3D
3E
04
04
35
08
09
04
02
02
03
38
06
3A
31
3C
02
3F
37
02
01
07
01
02
3D
3C
3C
02
03
07
00
3E
00
06
01
07
3A
3F
03
02
04
3F
00
3E
0D
06
3A
00
06
00
01
3C
3A
3D
3D
07
00
06
09
39
06
07
02
08
04
00
3B
05
07
36
07
02
04
06
00
05
3D
04
39
01
37
3B
39
3B
07
07
3F
01
01
04
3C
3D
3B
3E
3C
01
03
05
3A
05
06
3E
08
39
02
39
3B
03
06
02
3E
3C
3F
03
3F
3A
3A
02
3E
04
3A
01
00
3E
3D
39
39
3C
3C
3C
3E
3D
3A
3C
08
00
07
39
04
06
3C
04
3E
04
06
3D
01
06
00
3E
04
00
02
3A
00
05
05
38
3D
3F
39
04
00
39
04
3F
01
3C
3F
37
3F
07
08
00
3B
3C
03
06
04
03
3E
3C
39
3B
3E
00
3A
3F
05
3E
35
3D
06
3D
07
3C
3D
39
00
38
3F
3D
3D
01
07
39
00
06
02
09
3E
02
01
3C
01
3B
06
05
01
3F
00
02
3E
06
3D
3F
01
04
3E
3B
3E
03
02
03
05
08
3A
03
04
03
03
05
38
05
06
3C
03
3F
04
3F
3B
01
02
04
3C
05
04
01
3C
00
03
3C
08
04
36
00
03
02
07
3D
02
06
00
02
08
03
00
3B
06
02
3D
02
3E
05
06
3B
04
3F
07
00
09
00
3E
39
04
3D
00
00
03
00
02
04
3A
06
06
08
3D
3F
02
3C
3C
3C
04
3D
00
0A
04
00
00
3D
02
3B
3A
04
09
03
03
02
00
06
02
09
05
39
08
3E
37
3F
3C
3E
01
06
3C
05
39
3C
00
07
37
3B
00
3C
3D
00
02
37
02
3D
06
34
3C
04
02
04
01
3A
38
09
00
0D
03
06
08
3F
3F
02
3F
3C
04
04
07
3C
00
07
06
00
3F
3B
01
04
00
04
3D
3F
07
39
3C
06
01
03
3E
03
04
07
3F
06
02
3F
3F
01
3E
35
02
3B
37
3E
3B
01
08
3E
3C
3E
39
02
00
36
3C
36
06
3D
38
07
3D
36
3F
3E
00
03
3F
3E
03
3D
02
37
3C
3F
02
3E
03
3B
02
3A
3F
3E
3F
3B
3C
3C
3D
3F
01
3D
34
01
3B
3C
39
3D
3C
03
04
00
3D
3F
01
3C
3E
00
38
04
08
3E
06
05
07
07
06
04
3C
01
3F
3D
06
07
3D
09
08
03
04
3E
3B
01
3D
04
06
03
3E
05
3C
07
3C
03
02
02
3E
08
39
07
3A
01
04
04
00
38
04
05
00
3E
01
3C
3D
3F
36
37
00
08
00
3F
3D
05
0B
06
08
03
02
39
01
3F
3D
3F
04
05
07
00
06
3B
3C
00
38
3C
03
3E
3A
02
3D
04
01
08
07
3F
3B
01
06
04
05
3E
01
37
3E
02
3C
3C
06
3D
09
03
08
03
3C
05
09
02
3D
3A
03
08
3E
3F
04
09
04
07
3C
3B
3C
05
04
3F
05
39
04
3A
3A
36
03
01
3D
05
3B
04
3B
3C
04
3B
03
34
01
0A
02
3D
01
3F
04
01
05
00
03
0B
00
05
06
3C
06
05
02
04
3D
09
3F
09
06
39
3F
3C
00
36
3D
32
3E
09
3A
03
3E
38
06
01
06
03
3D
01
01
3A
3F
38
36
02
3B
02
05
01
00
07
3F
01
3A
03
03
3E
04
39
00
06
3D
3A
06
03
02
07
3D
3F
03
01
3E
36
00
3D
03
02
03
3E
39
04
02
03
07
3E
07
07
38
04
00
03
3B
08
3A
37
3C
09
00
05
3D
3C
09
00
07
3D
3B
3D
3C
08
01
00
3B
01
02
01
3C
03
3D
3A
07
3F
3C
36
04
00
3C
03
08
3E
05
3E
00
3F
3A
06
08
3B
39
3D
3E
3E
3C
03
06
02
3D
03
3F
35
39
08
3F
3A
00
3D
02
07
06
36
3E
06
37
00
02
3C
3A
01
0C
0A
03
09
0A
3C
02
39
3F
08
03
05
00
01
3B
05
3F
02
3C
3B
00
38
38
05
05
3B
3A
01
06
39
00
3B
3F
06
01
3D
3B
3C
01
3E
02
03
03
01
3E
01
01
09
37
00
3A
39
3D
01
3B
01
01
01
02
07
09
3E
07
04
3E
3F
07
3D
01
3E
3D
04
3C
03
3E
06
02
3E
00
00
3C
3F
05
3D
03
3A
3B
02
3E
00
3A
3A
3A
3E
3A
07
03
39
38
00
3C
3E
08
07
02
3F
3C
02
3F
06
3F
02
3F
3E
03
3F
3C
3C
01
08
02
01
01
3B
3E
3F
3F
3F
06
04
3F
00
03
00
3F
3E
3C
3A
3E
02
39
3C
04
05
08
06
00
03
02
3A
3D
37
00
3D
3F
07
3D
3D
3B
06
07
05
39
38
02
00
3E
3E
3F
02
02
01
3A
3A
39
3D
06
3C
39
37
3A
03
01
00
01
3D
01
06
37
02
05
3C
01
06
05
3F
3C
06
01
3F
06
38
00
06
3D
3A
02
00
07
01
3E
39
3B
08
09
3C
07
00
03
01
38
3F
08
03
3E
05
07
3B
0C
3C
02
36
38
03
3D
37
3F
00
00
37
01
07
02
04
09
03
01
39
3F
00
3A
04
02
3B
3D
39
01
07
3B
3D
01
3B
04
05
39
02
06
04
03
3B
3F
3C
3B
39
06
02
06
01
3D
06
3D
05
3F
39
01
01
02
03
3B
3E
3F
3F
05
07
04
00
09
05
3F
05
00
3C
06
3C
07
03
3C
3C
09
3C
01
07
31
07
0A
3C
00
3A
3E
38
3C
02
04
07
37
00
02
39
3B
03
05
04
03
03
0A
06
38
00
04
06
3E
01
03
05
3C
07
01
01
3D
3D
3F
3D
3F
3A
06
3C
00
05
03
00
36
09
3F
05
3B
01
07
03
02
01
3B
3C
37
3B
05
3F
3E
00
3C
01
3F
02
03
3C
0C
3D
05
3A
00
00
03
3B
3E
02
04
04
3F
3D
06
06
04
06
3F
3C
3B
06
01
06
0A
02
06
02
03
03
3A
02
04
3D
39
3C
38
3B
02
3C
06
04
06
05
08
3A
03
08
3D
02
3F
34
3E
09
3C
02
02
06
02
3D
3F
00
06
3B
05
36
38
38
37
00
01
02
3B
3A
03
02
3C
09
3F
04
00
00
00
3D
38
3B
03
05
03
35
05
04
00
05
05
3B
05
3F
3C
3E
06
09
04
06
3A
3A
3C
02
3F
39
01
3D
0A
04
3B
05
3F
02
3D
39
3F
3A
3C
3E
03
01
02
07
03
39
3C
37
34
3F
00
3B
05
00
3F
3E
04
04
38
3F
0C
3A
02
3C
3A
04
0F
02
04
03
01
06
05
06
3C
3A
0F
38
00
03
3F
03
02
01
3E
35
09
3C
3D
05
01
00
08
05
3A
3F
01
3D
08
02
00
02
07
03
3F
3D
3E
3B
3E
03
03
3E
3F
03
02
3C
3E
3E
08
0B
3F
03
38
09
03
3A
3B
3D
3B
3A
04
3F
3F
3C
3D
07
08
3C
3A
3D
3A
3C
36
07
01
3D
01
05
05
05
03
00
08
03
3A
05
3B
35
3A
3D
39
03
3F
3D
00
3D
01
00
3B
0A
00
3E
01
3A
3B
3C
3E
3F
3E
3F
04
00
03
3F
03
3D
01
03
02
00
39
3A
3E
3F
01
3C
3F
39
01
3F
3C
05
3D
05
00
3A
3A
04
3D
3A
04
3E
3F
3B
06
05
3F
03
39
04
3D
3A
3A
03
3B
06
03
01
0A
01
09
07
03
3D
00
06
04
03
3D
05
36
02
00
39
03
3C
3C
02
02
07
3A
3E
02
03
03
04
3A
04
00
38
3F
3B
01
3B
39
3B
3A
3B
04
3E
04
00
02
3D
07
03
39
03
3E
3C
3A
3B
3C
01
09
3D
3F
02
05
3A
06
36
07
03
05
00
36
3B
3E
3F
3B
08
00
3F
3E
05
05
37
05
02
37
3E
37
3F
01
03
3E
05
05
3F
02
3F
3F
03
3C
00
05
03
01
08
04
3F
02
00
01
00
00
3F
01
08
08
03
39
3A
04
39
02
3F
03
03
00
02
04
02
38
05
3E
3A
3E
3B
3F
00
05
08
39
38
01
3B
3C
02
04
08
00
08
3D
03
02
3E
01
06
3B
38
3B
3C
3F
07
3A
3F
3B
07
02
3B
3B
01
06
3E
3C
05
04
3B
04
01
39
3C
37
3C
35
3C
3E
07
04
02
09
01
3A
39
38
3D
07
3B
3D
3C
03
02
36
3C
01
00
01
3E
01
02
01
01
05
3B
3F
3F
06
3B
00
04
07
02
3D
00
02
07
3E
03
3C
3E
36
06
3B
3E
03
00
3F
07
08
3B
02
38
02
04
3E
06
00
01
3C
3B
03
37
05
3E
3D
3A
00
36
38
02
3A
3C
3D
05
3D
3E
08
3C
39
06
3D
00
02
3D
03
3B
03
3C
38
03
05
04
39
00
01
3D
04
3E
07
01
3A
02
3E
04
3E
38
3D
39
3B
04
08
39
3B
3C
0A
01
04
3A
3A
07
3A
02
07
00
00
01
3F
03
02
05
01
06
38
01
3C
02
38
3F
07
05
39
3E
3C
02
37
3A
06
04
38
39
3B
00
05
04
04
01
07
3A
05
02
3B
3E
06
3D
00
39
34
03
3E
09
02
07
03
38
06
3F
39
01
03
3E
3E
01
3B
01
3C
0D
3C
39
02
3F
05
07
39
3B
07
3E
00
06
05
01
05
02
3F
3E
01
08
3E
05
01
3B
39
38
03
3C
03
3D
39
04
36
02
3E
03
06
39
3E
38
01
03
02
04
3F
01
06
05
3D
3C
3C
0C
0C
02
03
3E
05
3C
3C
3D
01
3F
3C
02
3C
3D
36
08
3E
02
3F
3A
3E
39
3E
3D
07
3E
04
06
3C
01
03
01
09
02
06
05
09
3B
0D
07
00
3E
02
3C
3C
06
02
3D
39
09
02
03
03
3F
04
39
3B
07
00
01
03
01
04
3A
3E
05
01
3F
3D
3B
01
3C
00
03
36
3A
04
39
3B
04
01
39
07
3F
3A
07
3F
3F
06
01
3E
00
3A
07
3C
01
05
05
01
05
05
08
01
01
3F
06
3B
3E
00
04
3F
3D
03
3A
01
3F
08
00
3F
04
07
05
05
3E
3B
01
3C
07
06
04
01
3B
3D
05
3B
01
06
3B
00
38
3D
3B
00
3F
06
3B
3F
3F
3D
01
01
39
3D
08
00
3C
3D
03
3E
31
08
05
2F
04
3B
00
37
38
36
00
39
3E
3E
08
06
06
3B
3F
00
39
3D
39
3C
04
03
09
38
3C
07
03
3F
07
03
3D
02
01
03
03
3A
3E
08
02
3E
39
04
3F
39
05
3C
04
01
00
04
03
01
00
3A
3D
03
05
3D
00
02
39
00
00
02
05
05
02
04
05
32
04
3D
02
08
3A
3C
3E
02
04
02
04
3E
3F
3B
01
38
3A
02
03
05
02
05
05
3D
04
03
37
02
3F
04
05
3D
39
02
01
03
02
01
08
02
3E
04
03
3F
07
3F
03
07
3D
05
39
06
02
3C
05
03
38
04
3F
08
00
06
05
3F
36
00
3D
3C
03
3A
03
01
08
06
3F
3F
00
0A
01
02
01
00
0A
3F
3F
01
3B
3C
03
3E
02
06
3D
3A
3E
03
3B
38
00
37
04
39
04
03
02
01
04
3E
3E
00
04
00
08
01
05
06
07
00
06
02
03
3C
01
3D
0B
0B
3B
06
3A
02
06
3B
06
03
3E
3F
3F
06
0A
05
05
09
3D
06
34
05
03
02
06
01
06
3E
3E
05
3A
04
37
02
3C
02
39
01
0A
35
38
00
3E
38
36
3C
05
3F
04
00
06
3B
3A
3E
01
00
01
03
04
3D
01
3B
02
3C
3A
04
39
04
3D
3D
04
3C
3C
3C
01
01
05
08
3F
3C
3A
09
39
3B
3B
04
07
05
00
3A
00
3B
39
01
05
3B
39
02
3B
07
38
3D
3B
02
3E
3F
0A
3B
3B
00
3D
3C
3F
3E
00
3D
02
04
02
06
3F
3C
39
05
00
03
3D
07
02
3E
3D
3C
06
3E
0C
05
3A
03
3D
3B
01
01
3F
3C
3F
3E
06
3F
01
3F
3F
08
36
06
3B
06
05
05
01
3B
36
3A
3B
38
01
03
3F
01
3A
05
07
3E
03
00
01
3B
3D
04
3E
3C
3B
3C
03
37
3C
36
08
01
05
02
00
3C
3E
3E
00
03
04
03
06
04
3D
02
3E
06
3F
3D
05
03
37
00
06
04
03
3D
39
05
3F
09
03
00
01
3F
3E
3B
3D
02
02
04
3F
3B
36
04
3C
3D
05
3D
3A
03
3A
03
04
00
02
3F
3C
3A
03
3C
3F
06
08
02
38
3C
35
03
3B
3D
3A
04
08
3B
39
02
04
38
3F
04
3E
08
3C
3E
3C
32
3F
04
3C
3D
01
3A
3D
3D
07
38
06
3B
05
3D
00
04
3D
02
01
07
08
3C
02
0C
3D
3B
06
3E
02
03
3E
04
04
3F
08
3B
02
3E
38
05
00
3C
01
02
39
3B
3E
02
03
37
06
3A
01
03
04
06
02
3C
3E
08
39
3A
3F
3F
3D
3F
03
08
3E
3F
01
04
04
3A
39
07
39
3B
3C
3D
3A
07
06
3E
01
00
02
3D
3D
05
3E
02
3B
07
08
02
01
01
00
3D
3D
3C
03
03
3E
05
06
02
03
04
06
3F
3F
3A
01
3E
3F
3A
09
3A
0A
06
3F
3C
03
03
03
3B
00
3A
06
3B
05
01
06
07
03
3A
3B
06
02
38
3B
00
38
3E
08
00
06
08
07
3C
3F
3C
3D
06
37
00
04
3A
02
39
0A
3C
09
09
04
3B
38
01
00
3A
00
08
05
38
00
3F
03
38
00
01
00
03
3D
0B
3F
37
3A
3D
37
3F
3F
01
36
3C
08
03
06
3E
04
04
01
3D
3D
02
3E
3C
05
00
06
0A
38
03
06
3C
3C
01
3D
08
3B
39
3D
06
03
07
02
11
06
3F
3E
03
00
38
3C
3B
3A
05
09
02
03
06
38
3E
00
3A
3E
01
3C
35
05
3F
05
3B
3D
3A
03
3E
00
02
07
39
3A
04
39
3E
38
3A
04
03
08
00
3A
3E
3F
07
3D
3D
3A
05
3E
3C
00
00
08
01
01
01
3F
3C
3A
07
08
39
06
3D
3C
3D
3D
39
3A
3F
3B
02
03
3D
06
03
3E
3F
02
06
3F
38
38
3F
08
05
3E
3D
02
33
06
05
03
01
37
02
00
00
39
3A
06
3D
3B
3F
3F
3C
02
04
00
3A
39
3D
3C
09
01
03
3D
09
3A
02
3F
02
03
02
3E
05
04
04
05
05
04
3A
03
3D
39
08
04
03
01
05
06
3F
03
03
3D
3B
02
05
01
37
03
00
01
3C
07
07
3E
03
01
39
3A
02
03
39
03
05
06
07
03
3B
02
08
3D
3E
3A
01
01
04
38
03
04
00
3E
06
3A
09
39
01
07
01
3B
00
06
3D
3B
3B
3A
01
3E
08
05
06
3D
3F
3A
02
02
07
08
3D
01
04
3F
02
0C
06
3C
3E
3E
02
3B
39
3C
03
3C
04
05
3F
06
3E
08
03
03
07
03
04
03
04
39
3F
39
00
07
03
08
03
06
03
3B
07
03
3A
02
3A
3E
3C
01
39
39
3C
06
01
03
3F
38
3C
02
01
04
3C
3F
04
37
3A
3D
3B
3E
3E
04
3D
3E
3A
06
07
03
05
07
3E
06
3F
3F
3E
08
3D
0A
0A
04
06
3F
03
3E
00
3C
3E
3D
05
05
3D
01
09
09
07
3B
07
00
09
04
3D
00
04
01
00
07
00
00
08
05
09
04
35
05
34
00
3B
39
3F
3E
02
00
31
3A
04
3D
3D
39
06
00
35
08
03
3B
00
03
3B
00
00
03
3D
00
39
01
39
07
09
03
04
02
3D
3D
05
04
36
01
3D
00
3C
05
39
00
01
04
05
3F
01
3E
3C
07
3C
03
3D
04
3C
02
01
3E
05
3D
00
37
02
06
02
3F
3F
06
3D
04
3E
3F
02
01
3B
06
3D
3C
04
0A
3F
08
3E
3F
04
06
00
01
00
07
05
06
3F
03
3F
3C
3C
00
01
03
04
05
06
3D
01
00
03
02
00
37
3E
34
05
05
3A
05
3C
3C
01
3C
3B
00
3B
06
00
3B
3A
3D
07
06
3B
00
3D
38
04
02
3F
02
3C
3B
3A
02
3E
38
09
3A
04
08
03
3E
04
00
04
3D
3F
02
03
3E
3F
0A
3D
02
00
01
3B
3B
3F
05
3C
3C
3B
05
01
3C
3C
04
3C
3F
02
05
02
3E
3F
05
06
3E
04
3C
04
01
3A
04
0A
3C
07
3C
08
04
36
06
38
3B
38
00
3E
07
3B
02
01
39
08
05
05
08
3A
3E
05
3F
00
3A
3F
3B
04
3C
08
05
3B
03
02
3B
01
3A
3E
02
3F
38
3B
03
3D
03
00
07
04
04
3E
03
08
03
09
09
04
38
3E
37
00
06
02
07
04
07
38
03
07
05
05
08
03
01
3C
00
3E
00
06
00
05
3B
02
3F
3E
3E
3E
03
39
03
09
03
3B
02
05
03
3A
00
03
01
37
03
38
3E
05
02
03
3D
3B
02
04
3E
02
3E
08
01
34
3D
3C
3E
3A
3A
01
39
04
3F
01
3E
04
01
3A
03
04
3F
0A
3F
02
3F
07
3A
3D
01
3F
39
02
04
3C
0C
05
02
05
3D
3A
3C
09
03
3B
3C
3F
3F
02
07
05
02
3E
3A
03
3A
38
05
3C
05
3D
01
07
03
00
3F
3A
39
00
3B
0B
3B
36
38
39
00
05
04
3A
3E
3F
02
3A
04
34
01
3E
3E
3D
04
3F
3A
3A
3F
01
05
01
02
3C
3F
01
06
3D
07
03
03
3F
3C
3E
01
3E
3D
3C
01
3D
06
01
06
01
02
3F
07
3C
02
38
02
3D
3C
3C
3A
05
3D
05
3A
3F
08
00
02
00
00
09
01
37
03
0B
3B
01
3D
07
39
03
0C
0F
04
3D
3C
09
38
3F
07
3F
39
3D
08
0B
03
3C
3A
01
02
3C
3F
07
05
3C
3D
0A
3E
39
3E
3E
39
3E
07
02
3F
3C
02
04
04
3E
00
39
01
3D
08
02
04
03
38
06
3B
3B
3B
3B
3D
06
05
3E
3F
07
3B
01
03
3D
00
34
04
04
3B
3B
03
05
00
01
3E
36
35
33
04
0B
01
36
3D
35
00
33
04
06
00
0E
34
04
3C
34
03
3D
04
03
3E
01
00
00
3F
3D
3B
39
3A
06
3E
3C
05
36
00
08
38
04
36
3B
3B
3C
00
05
3E
00
02
07
3D
02
3D
3A
3F
01
3F
05
08
3C
06
3E
03
01
03
3A
3A
3B
04
02
03
04
0A
04
3F
00
39
02
35
00
02
00
3B
09
03
3F
3D
3B
05
3A
01
3F
02
3C
36
37
3E
32
3F
3F
3C
08
34
3D
3A
37
07
03
02
0C
3A
04
3A
04
3F
0B
05
06
3A
3B
3C
01
06
02
3E
06
06
3A
39
02
04
01
06
03
3D
01
3D
3F
00
02
05
01
06
3D
08
00
03
3B
3E
07
07
3C
3C
01
3D
3A
08
3E
39
03
3E
3F
01
05
04
3E
3C
01
3C
05
3A
3F
3B
35
3B
3E
05
3B
3B
00
02
00
30
3B
3D
3A
09
3D
34
3C
03
3C
37
00
3A
0B
05
03
39
03
01
39
03
01
02
3C
06
04
06
05
3C
03
03
0A
3A
00
3B
38
06
07
3D
00
00
3D
08
3F
07
03
3C
00
06
3F
05
05
02
3A
3A
05
3A
03
3E
03
3B
03
3E
04
00
3C
00
02
3E
01
03
39
04
3B
3C
36
3A
3F
3E
39
32
3A
03
3F
03
35
05
05
02
00
03
02
03
3F
0B
3A
2F
3A
3B
3B
05
3B
38
02
3C
04
09
3E
39
3D
04
38
3F
01
00
38
3C
3F
3D
02
01
01
02
39
3A
3F
05
3B
04
06
02
03
3B
3E
05
01
02
3D
03
3A
3B
3F
06
07
37
09
04
08
00
3C
05
3F
39
05
3E
00
0A
07
3D
00
3F
06
01
03
01
02
03
39
3E
3C
05
08
09
03
3F
06
02
08
39
02
04
3C
3E
3D
3A
3D
3E
00
3F
01
08
05
00
01
05
3F
02
3F
03
00
06
3A
3A
3F
09
05
01
07
05
3E
3B
03
00
07
3A
00
02
07
06
3B
0A
02
01
3E
3D
3E
00
3D
06
09
08
0E
01
3E
02
02
06
06
3C
38
0A
3F
08
3F
08
06
3F
00
3D
3F
02
3D
06
03
39
3D
00
3A
05
05
02
03
3B
05
3B
01
00
3D
02
02
05
38
07
00
06
05
3B
3E
37
00
3D
01
37
02
00
01
3A
3D
05
3A
05
05
3F
02
05
3C
01
01
04
3F
39
06
38
3E
01
00
07
39
07
01
3D
3E
03
01
02
3F
03
05
34
3C
0A
39
3B
06
00
05
00
04
02
39
36
3D
04
07
3A
3A
0B
3D
09
05
04
3C
3A
04
3F
37
00
3C
05
3E
39
3C
07
06
06
3C
3B
05
3F
3B
07
3D
07
03
00
37
3A
02
09
3D
03
03
04
00
00
3C
01
04
05
3E
3E
3B
37
03
05
03
02
3F
3F
39
3C
3E
03
05
3F
01
01
06
39
3A
06
3A
3F
00
38
04
06
01
02
01
05
3D
3D
3F
05
01
01
3E
04
04
3C
00
04
3C
01
3C
3C
04
04
3E
37
35
08
3C
3F
07
3A
3E
3F
01
01
06
02
3B
3F
06
3F
01
05
3C
04
3E
08
3A
03
06
3B
3E
04
3F
3E
07
01
04
06
3C
3C
01
02
3F
04
05
3F
3E
3D
08
3C
3D
3D
34
05
09
37
3B
3E
0A
3C
00
00
09
03
3E
02
3E
38
39
3E
3E
01
3D
00
00
3A
3B
3B
01
38
03
3D
01
03
01
07
3B
06
07
3D
3E
3D
3D
39
37
00
02
3A
04
00
02
3F
39
07
3B
01
01
38
3D
3F
3B
02
3A
38
3B
38
3B
38
3B
00
03
03
00
3E
01
3C
38
3E
08
3D
0B
36
06
09
3F
3E
08
08
05
08
01
3E
3E
00
03
01
03
3E
39
03
3E
00
09
03
02
06
3E
3D
3A
3D
03
3E
04
08
02
04
3E
01
08
3E
05
06
00
03
3D
05
39
04
3D
0B
3A
3F
3D
08
3D
09
3C
3F
38
08
3E
01
04
39
05
07
37
04
04
3F
3C
3E
03
05
3A
3F
07
06
06
00
3B
38
3E
05
01
39
02
3E
01
3C
3D
3D
3E
3B
00
07
3E
3B
04
0A
03
3E
04
3C
01
02
08
39
00
00
3D
04
02
00
3C
3B
3C
3E
05
05
3B
3F
3B
04
3E
3D
07
04
3E
3F
3E
3D
08
3C
05
05
05
06
01
03
04
03
3E
06
05
07
02
07
3F
05
3E
36
06
05
3A
04
05
0A
07
3C
02
3A
07
3C
3C
02
3D
00
3B
01
39
3D
3E
04
3F
3B
3D
3C
3C
01
07
05
39
38
3F
05
3E
00
3B
3F
3B
3B
05
0A
07
01
3C
3D
03
3D
3D
3C
3C
00
04
02
3D
06
04
3B
3E
06
3A
03
00
3C
3F
03
02
05
00
02
01
02
02
36
3A
3A
01
3A
38
08
01
06
00
06
0B
01
00
03
39
3E
37
3D
3D
37
02
3B
06
39
01
3D
06
3C
06
00
00
03
3B
04
05
3D
3D
07
09
01
02
00
3D
04
03
3C
3C
3D
3F
03
3F
04
00
01
07
07
3B
00
07
08
3E
00
00
01
3B
03
3C
03
07
3E
02
3E
39
01
02
01
3A
05
00
3E
3C
3E
39
00
03
04
06
3D
3D
3E
3A
01
07
37
3F
01
34
3F
3F
3C
00
34
3C
3A
39
3F
3C
3F
3C
03
34
02
33
03
3D
02
01
06
00
00
3D
00
05
35
36
3E
3D
35
3A
0C
3E
06
3C
05
3F
39
02
00
3E
3C
02
3A
3E
02
02
06
02
05
3A
3D
3A
3A
06
3F
3D
08
0A
05
3D
05
0E
03
02
05
3E
00
3A
03
05
3A
3D
39
00
08
0E
3E
3C
00
3B
01
03
0A
05
00
0F
08
00
02
07
08
03
3D
05
07
3F
02
01
3E
04
00
03
00
02
05
0E
04
3A
3A
3F
08
02
3B
08
3E
3E
00
3B
3C
3D
01
07
01
05
3B
02
09
3F
01
3B
3D
39
3C
3F
3A
05
01
0A
07
00
39
01
3B
06
01
00
01
08
08
07
0A
01
3F
04
3C
04
05
04
39
02
3F
3C
3F
3D
3F
05
04
3A
3E
3C
02
04
02
3E
00
37
3F
3C
07
3F
3F
05
00
3F
02
07
00
01
34
01
04
39
3F
38
07
07
05
07
06
03
38
3D
07
3D
39
37
3E
38
3B
02
3D
38
02
3D
07
06
04
06
3D
09
3D
3F
3E
3A
01
03
3A
06
06
06
04
02
3F
02
3B
00
3E
00
3E
38
08
00
3A
38
00
03
3E
39
02
3E
3E
0A
02
02
03
3F
00
03
04
00
05
3B
06
3F
3F
0C
05
03
38
3E
3F
38
05
01
3E
02
3D
00
07
00
06
04
3C
3A
3F
3C
3B
3F
03
39
3D
01
02
3E
3C
3E
04
03
00
06
09
39
3B
01
06
38
08
07
3F
00
01
0B
01
3D
03
3E
01
3B
3F
3C
3E
02
01
06
3F
06
39
06
3B
05
05
39
3C
06
05
01
39
03
01
00
03
03
03
05
3B
3A
3B
3F
07
05
01
3F
3E
07
05
06
3C
3E
3E
06
02
05
01
38
3F
01
09
38
3F
38
3D
07
39
3D
37
03
3D
3E
3D
01
3F
3D
03
38
04
03
07
3A
01
03
3F
3C
02
3C
3C
3A
04
3C
07
0A
3D
06
02
05
3F
3D
03
01
3F
39
3B
3B
3B
36
08
06
3B
3F
3B
01
06
04
02
3C
05
04
08
3B
00
00
3C
38
06
3D
02
02
03
3F
05
04
3B
3E
3E
02
38
01
3E
3B
08
3C
03
00
39
00
02
3F
38
05
01
08
01
3F
3A
3A
03
04
3C
3A
3F
3D
37
3D
01
05
01
02
3D
0A
39
39
04
0A
05
3F
00
3D
3C
3D
03
3F
03
39
3C
3F
3F
3D
3B
00
00
3A
03
3A
3C
3E
02
38
01
39
09
3C
3D
00
37
00
03
06
38
39
00
3F
08
04
3D
3D
03
3F
02
00
3E
3A
01
0A
3C
04
06
08
00
04
3D
3F
00
38
04
36
3C
01
08
05
02
03
06
06
02
07
06
00
36
00
32
00
3A
3F
03
36
02
06
3E
3B
39
03
3B
0A
01
3F
39
3A
38
04
37
3D
3D
3C
3D
04
07
04
38
3D
3E
3E
35
07
00
06
3C
06
05
3A
05
03
01
3B
3C
3A
05
00
3F
